<pad>	0
<unk>	0
<s>	0
</s>	0
,	-3.04022
▁।	-3.19059
▁र	-3.56707
को	-4.17722
▁	-4.65749
मा	-4.69503
▁“	-4.71152
का	-4.75539
ले	-4.8157
▁म	-4.81809
लाई	-4.84295
▁तर	-4.86046
▁छ	-5.07427
▁भने	-5.07548
▁।”	-5.10002
▁पनि	-5.10601
▁तिनीहरूले	-5.34089
बाट	-5.41143
हरू	-5.43484
▁यो	-5.50093
▁हो	-5.50893
▁किनकि	-5.50944
▁उहाँले	-5.54194
▁निम्ति	-5.56025
▁सबै	-5.56148
▁नै	-5.57741
र	-5.59771
▁तिमीहरू	-5.60027
▁तिनीहरू	-5.66354
ा	-5.70433
▁हामी	-5.73388
▁थिए	-5.74868
े	-5.75308
▁तिनीहरूलाई	-5.7606
ु	-5.76829
▁मैले	-5.77527
▁त्यो	-5.78592
▁एक	-5.80247
▁अनि	-5.80431
▁?	-5.81408
▁तिमीहरूलाई	-5.82237
▁थियो	-5.84316
▁जब	-5.84439
न	-5.85241
▁भन्‍नुभयो	-5.87853
▁कुरा	-5.91724
▁गर्न	-5.92857
▁तिमीहरूले	-5.95429
▁परमेश्‍वरको	-5.95977
▁के	-5.96507
▁आफ्नो	-5.97187
ँ	-6.00052
ी	-6.00968
▁उहाँलाई	-6.01953
▁येशू	-6.02087
▁उहाँ	-6.02127
▁येशूले	-6.03767
▁कि	-6.03994
▁मलाई	-6.04636
स	-6.06997
▁यी	-6.07725
▁गरे	-6.09218
▁मेरो	-6.09371
▁छन्	-6.09704
▁न	-6.09876
▁उहाँको	-6.14237
-	-6.15903
म	-6.19054
ि	-6.19927
▁जसले	-6.20816
▁जना	-6.22672
▁गर	-6.23122
ल	-6.23299
▁भनी	-6.23737
▁एउटा	-6.23932
▁धेरै	-6.24409
▁यदि	-6.27039
▁विश्‍वास	-6.28975
▁लागि	-6.28996
द्वारा	-6.30735
▁त	-6.30798
▁कुराहरू	-6.32772
▁ती	-6.3322
ो	-6.3449
▁?”	-6.34922
्	-6.35489
▁भएको	-6.35921
▁गर्ने	-6.38049
▁केही	-6.39329
सँग	-6.39623
▁कुनै	-6.40161
▁तब	-6.41379
▁हुनुहुन्छ	-6.419
त	-6.42487
▁भए	-6.4305
▁किनभने	-6.44257
▁दिन	-6.46717
▁‘	-6.48608
▁छु	-6.4967
▁भन्‍ने	-6.50806
▁आफ्ना	-6.51818
▁वा	-6.51888
ै	-6.54228
▁त्यहाँ	-6.54931
▁त्यस	-6.56718
▁मानिस	-6.57123
न्	-6.58898
▁परमेश्‍वरले	-6.61239
▁काम	-6.61401
▁तिमीहरूका	-6.61521
▁भएका	-6.61558
▁त्यसपछि	-6.62073
▁जो	-6.62174
▁भनेर	-6.62627
▁यसो	-6.63565
▁हामीले	-6.6438
▁प्रेम	-6.65103
▁ताकि	-6.66009
ता	-6.66487
▁त्यसलाई	-6.67238
▁उनले	-6.67518
▁हुन्	-6.69828
हरूलाई	-6.70729
;	-6.70991
▁हाम्रा	-6.71012
▁पवित्र	-6.71286
▁तिमी	-6.7231
▁मेरा	-6.72625
▁ख्रीष्‍ट	-6.72782
▁छौ	-6.73438
क	-6.73463
▁मानिसहरू	-6.73718
▁होइन	-6.73781
▁तिनले	-6.74082
▁हुन्छ	-6.74444
ट	-6.74499
▁छैन	-6.7472
▁बारेमा	-6.75001
▁परमेश्‍वर	-6.75451
▁अब	-6.75476
▁तिनीहरूका	-6.75536
▁दिए	-6.77508
▁हुन	-6.77895
▁हामीलाई	-6.80183
▁जवाफ	-6.80463
▁असल	-6.80479
▁प्रभु	-6.80644
▁तिनी	-6.81415
▁तिनलाई	-6.82086
▁त्यसले	-6.82352
▁त्यसैले	-6.82906
▁उसले	-6.83981
▁कसैले	-6.84992
▁यस	-6.85786
ह	-6.86927
▁पिता	-6.88807
▁मात्र	-6.89829
ज	-6.90452
▁वचन	-6.90459
▁थाहा	-6.91408
यो	-6.91752
▁गरेका	-6.91994
माथि	-6.92422
▁रूपमा	-6.95384
▁दिनुभयो	-6.95456
भन्दा	-6.96022
▁हेर	-6.96211
▁गए	-6.96727
▁जे	-6.97534
▁उहाँका	-6.98032
द	-6.98568
▁तिमीहरूको	-6.98752
▁हाम्रो	-6.99956
▁जीवित	-7.01011
▁तिम्रो	-7.011
▁ठुलो	-7.01543
▁पुत्र	-7.01937
पछि	-7.01967
कहाँ	-7.02109
▁तिमीले	-7.02744
▁जान	-7.02925
ौँ	-7.03001
▁पाप	-7.03838
ग	-7.03938
▁आए	-7.04057
▁तिमीलाई	-7.04221
्‍	-7.04801
▁फेरि	-7.07024
की	-7.07432
च	-7.0747
▁जुन	-7.07566
▁हरेक	-7.0772
ेर	-7.09586
▁त्यसको	-7.10113
▁होस्	-7.10186
▁समय	-7.10673
▁हुनेछ	-7.10752
▁अरू	-7.10845
▁छोरा	-7.11719
▁गर्छ	-7.1221
▁बाहिर	-7.14368
▁आज्ञा	-7.14799
▁भयो	-7.15316
▁प्रार्थना	-7.15548
▁उनी	-7.16022
तिर	-7.16368
▁परमेश्‍वरका	-7.1776
▁गर्नुभयो	-7.17818
ब	-7.18192
▁त्यसकारण	-7.18349
▁इच्छा	-7.19562
▁गरेको	-7.19795
▁।’	-7.19904
प	-7.2015
▁छौँ	-7.20244
”	-7.20255
▁उसलाई	-7.20257
▁अर्को	-7.2133
▁आत्मा	-7.21349
▁किन	-7.21456
▁अ	-7.21905
ला	-7.22236
▁आ	-7.2257
▁!	-7.22787
▁ख्रीष्‍टको	-7.23356
▁विरुद्धमा	-7.23674
ौ	-7.2492
ड	-7.25213
हरूले	-7.26131
▁नाउँ	-7.26531
▁येशूलाई	-7.2685
▁भन्दछु	-7.26939
▁पुरा	-7.28287
ख	-7.29622
सम्म	-7.29952
▁जीवन	-7.30095
ए	-7.30205
▁भाइहरू	-7.31113
▁कसरी	-7.31126
▁तपाईं	-7.3122
▁आफ्नै	-7.31851
▁तिनीहरूको	-7.32522
सँगै	-7.32974
▁कारण	-7.33219
▁हुँ	-7.33249
▁उनलाई	-7.33292
▁सक	-7.33498
्न	-7.33951
▁हात	-7.34013
▁कोही	-7.34077
देखि	-7.34556
के	-7.34947
य	-7.35485
▁ऊ	-7.35789
▁गरी	-7.36297
’	-7.36375
हरूको	-7.36503
ना	-7.36773
▁प	-7.38041
्‍न	-7.38731
ाइ	-7.38792
▁नगर	-7.38994
▁गवाही	-7.39328
ू	-7.39653
▁आफैँलाई	-7.4001
इ	-7.40961
▁गर्दा	-7.41771
▁स	-7.42176
▁यस्तो	-7.4254
हरूका	-7.42611
▁मानिसहरूलाई	-7.43529
▁सुन	-7.43794
▁शरीर	-7.44061
जस्तै	-7.4481
्यो	-7.4493
▁महिमा	-7.44955
▁रोटी	-7.45756
▁न्याय	-7.45887
▁भएर	-7.468
स्	-7.47409
चाहिँ	-7.48068
▁पानी	-7.48289
▁मानिसलाई	-7.485
सित	-7.48577
▁अहिले	-7.49091
▁सेवा	-7.49132
▁मानिसले	-7.50274
्य	-7.50823
िन्	-7.50913
ार	-7.50942
▁मानिसहरूले	-7.51029
्छ	-7.51095
हे	-7.51703
▁जसरी	-7.51741
▁अनुग्रह	-7.52436
▁देखे	-7.52457
▁आफैँ	-7.52826
छ	-7.52827
▁आएको	-7.53337
▁दुष्‍ट	-7.53387
▁बरु	-7.53519
▁दुई	-7.53562
▁तपाईंले	-7.54524
▁पहिले	-7.55328
▁प्राप्‍त	-7.55328
▁यसकारण	-7.55329
▁उसको	-7.55331
▁जसलाई	-7.55386
▁पावल	-7.55577
ित	-7.55655
▁गर्दै	-7.56696
▁घर	-7.57507
▁राज्य	-7.57574
अनुसार	-7.57629
▁भिड	-7.58401
▁बस	-7.58689
▁यसरी	-7.59136
▁यसलाई	-7.59715
▁सारा	-7.60003
▁पत्रुस	-7.60326
▁परमेश्‍वरलाई	-7.60848
▁निको	-7.60963
▁शक्‍ति	-7.60964
भ	-7.61156
▁त्यही	-7.61684
▁प्रचार	-7.61935
▁अर्थात्	-7.61958
उ	-7.62341
▁चेलाहरू	-7.62626
▁भन	-7.62641
▁अधिकार	-7.62875
▁फल	-7.63349
▁हौ	-7.63713
िएको	-7.6387
▁अगाडि	-7.63905
▁भन्दै	-7.64172
▁येशूको	-7.64477
▁व्यवस्था	-7.64615
व	-7.64886
▁कामहरू	-7.65033
▁राख	-7.65157
छन्	-7.65677
▁बिचमा	-7.65916
ध	-7.65934
▁जानुभयो	-7.65983
हरूमा	-7.6668
▁भाइ	-7.67063
▁हुँदैन	-7.67574
▁सुने	-7.68493
▁भ	-7.68515
▁विषयमा	-7.69061
▁गरेर	-7.69061
▁आयो	-7.69168
▁अगि	-7.69362
ाउन	-7.69452
▁सहर	-7.69468
श	-7.69489
▁हुने	-7.69568
▁उनीहरूले	-7.6983
▁प्रकट	-7.70061
▁भन्यो	-7.70122
कै	-7.70161
ने	-7.7055
▁दिनमा	-7.7103
▁विचार	-7.71125
▁तिन	-7.71221
▁कहिल्यै	-7.722
ेको	-7.72239
ुहोस्	-7.72333
▁मानिसका	-7.72731
▁तापनि	-7.73288
▁शान्ति	-7.73299
▁साँचो	-7.73407
▁मन	-7.73576
▁को	-7.73725
▁सुसमाचार	-7.73954
▁राजा	-7.73969
ओ	-7.74009
ेका	-7.74294
▁धर्मी	-7.74468
▁ग	-7.74865
▁महान्	-7.75525
ियो	-7.75646
▁ब	-7.75718
ुपर्छ	-7.76088
▁थिएन	-7.76576
▁जहाँ	-7.76691
ः	-7.77734
▁कुरामा	-7.77797
छौ	-7.77913
िए	-7.78074
▁तिनको	-7.78229
▁स्‍त्री	-7.79345
िया	-7.79574
▁गर्छौ	-7.79685
▁लेखिएको	-7.80095
▁कारणले	-7.80183
▁गर्छु	-7.80686
री	-7.81039
▁रगत	-7.81066
▁दिने	-7.81127
िन	-7.81504
▁समयमा	-7.81892
▁यही	-7.82436
▁तपाईंको	-7.82562
▁उनीहरू	-7.83248
▁अझ	-7.83533
▁परे	-7.83685
▁यहाँ	-7.83751
▁मानिसहरूका	-7.84006
▁बोल	-7.84375
ठ	-7.84707
▁गर्नुभएको	-7.85225
्या	-7.853
▁हृदय	-7.85388
▁ए	-7.85685
▁तुरुन्तै	-7.86095
▁प्रवेश	-7.86095
▁भाग	-7.86095
▁उनको	-7.86108
▁मुख्य	-7.86113
▁थोक	-7.86321
▁उ	-7.86521
▁गर्नेहरू	-7.86811
▁सत्य	-7.87215
▁देख	-7.87282
▁आनन्द	-7.87292
▁इन्कार	-7.87345
▁खडा	-7.87345
▁आँखा	-7.87688
प्रति	-7.87933
▁गर्दछ	-7.88151
▁पछि	-7.88282
▁ह	-7.88363
्‍ने	-7.88437
▁यरूशलेम	-7.88578
▁पहिलो	-7.88611
नन्	-7.88834
▁ठाउँ	-7.8898
▁क्षमा	-7.89893
▁आवाज	-7.89893
▁आदर	-7.89893
नुभयो	-7.90364
▁आउने	-7.90468
▁उठ	-7.90822
▁पालन	-7.90909
साथ	-7.91055
▁दिइएको	-7.91191
▁ल्याए	-7.91192
▁जसको	-7.91263
▁बढी	-7.913
▁खान	-7.92043
▁पर	-7.92118
▁मृत्यु	-7.92259
ष	-7.92507
▁शिक्षा	-7.92507
▁पुजारी	-7.92831
▁बोल्न	-7.93124
▁अगमवक्‍ता	-7.93258
▁अभिवादन	-7.93841
▁घोषणा	-7.93841
▁आउन	-7.94005
िरहेको	-7.94383
▁तयार	-7.94941
▁एउटै	-7.95192
▁नष्‍ट	-7.95192
▁सामु	-7.95192
▁बप्‍तिस्मा	-7.95238
▁स्वर्गमा	-7.95921
▁पार्न	-7.96112
्ने	-7.96114
▁त्यसै	-7.96329
छैन	-7.96373
▁घरमा	-7.96521
▁विवाह	-7.96563
▁माझमा	-7.96564
▁तिनीहरूसँग	-7.96751
▁देखा	-7.96851
▁यसको	-7.9696
झैँ	-7.96996
▁पत्रुसले	-7.97723
▁व्यक्‍ति	-7.97753
▁पावलले	-7.97776
▁प्रिय	-7.97955
▁हुँदा	-7.98087
दिन	-7.98101
▁गरिरहेका	-7.98138
भित्र	-7.9833
प्रभु	-7.98409
▁आमा	-7.99085
ोस्	-7.99339
▁नयाँ	-7.99359
▁सिमोन	-7.99359
▁कति	-7.99383
▁ख्रीष्‍टमा	-7.99703
▁हुनेछन्	-7.99767
▁ठाउँमा	-8.00372
▁भन्‍न	-8.00409
▁यूहन्‍ना	-8.00641
▁दुःख	-8.00734
▁शुद्ध	-8.00788
▁बेला	-8.00817
मध्ये	-8.00918
▁जस्तै	-8.00997
▁कर	-8.01056
▁जस्तो	-8.01661
ाउने	-8.01995
▁दुवै	-8.02237
▁प्रशंसा	-8.02237
▁याकूब	-8.03708
▁तल	-8.03776
▁ल	-8.03839
▁तिमीहरूसँग	-8.0478
▁यहूदी	-8.0489
▁देओ	-8.05319
▁गर्नुहुन्छ	-8.0545
▁जाति	-8.05492
▁गरिएको	-8.05512
▁गर्दछु	-8.05572
▁नाउँमा	-8.05686
एर	-8.05689
)	-8.05753
दा	-8.06069
वा	-8.06313
▁दोष	-8.06462
▁मसँग	-8.06476
▁धन्यवाद	-8.06715
▁जन्म	-8.06733
▁आउनुभयो	-8.06748
▁परमप्रभु	-8.06815
▁क	-8.07064
▁गर्नुपर्छ	-8.07079
▁मानिसको	-8.0728
▁पत्‍नी	-8.0746
▁नि	-8.07546
▁च	-8.0821
▁अनन्त	-8.08254
▁बसे	-8.08301
▁गर्छन्	-8.08794
जस्तो	-8.08869
ीहरू	-8.09163
▁नोकर	-8.09413
तिमीहरू	-8.09517
▁नजिक	-8.09672
▁बुबा	-8.09854
▁आत्माले	-8.10179
▁सक्दैन	-8.10318
ुहुन्छ	-8.10358
▁बाटो	-8.10507
▁पठाए	-8.10528
िएका	-8.10641
▁मालिक	-8.10704
▁प्रतिज्ञा	-8.10842
जा	-8.10888
ाउँछ	-8.11017
्दछ	-8.1102
▁सधैँ	-8.11381
▁हुनुहुन्थ्यो	-8.11437
▁जाँदै	-8.11442
▁तपाईंलाई	-8.11544
▁ख	-8.11735
▁हातमा	-8.11763
िरहेका	-8.12135
▁भित्र	-8.12489
▁सहरमा	-8.12774
▁आफैँले	-8.12855
▁दया	-8.13016
▁बाह्र	-8.13016
▁टाढा	-8.1304
▁ढोका	-8.13117
▁धार्मिकता	-8.13168
▁दिनुभएको	-8.13178
▁कष्‍ट	-8.13249
▁लिएर	-8.13281
▁अगमवक्‍ताहरू	-8.13517
▁सबैले	-8.13585
▁संसारमा	-8.13665
्र	-8.13794
▁बालक	-8.13874
▁आएका	-8.14002
▁पार	-8.1418
▁प्रधान	-8.14656
▁यात्रा	-8.14656
▁अझै	-8.14853
▁पूर्ण	-8.1505
▁खा	-8.15243
▁होओ	-8.15261
▁फर्क	-8.15304
लो	-8.15621
क्	-8.15802
▁उनीहरूलाई	-8.1607
▁अशुद्ध	-8.16322
्दै	-8.16368
▁सोधे	-8.16383
▁खातिर	-8.16401
▁स्वर्ग	-8.16962
ुभयो	-8.17607
ुहुनेछ	-8.17743
▁चेलाहरूले	-8.17767
▁ग्रहण	-8.18009
▁खतना	-8.18017
▁डर	-8.18023
▁कसैलाई	-8.18284
▁प्र	-8.18349
तपाईं	-8.18791
▁तिमीहरूकहाँ	-8.19195
▁त्यसो	-8.19198
▁गर्दैन	-8.19351
ुभएको	-8.19459
▁ला	-8.19499
▁सो	-8.19616
▁आराधना	-8.19741
▁आशा	-8.1977
▁गर्‍यो	-8.19841
▁तिम्रा	-8.19916
▁त्यसरी	-8.19954
एको	-8.20156
▁लागे	-8.20445
▁स्वीकार	-8.20746
▁संसारको	-8.20904
▁क्रुसमा	-8.21928
▁स्वर्गबाट	-8.21964
▁द	-8.22178
यदि	-8.22326
हेर	-8.22341
्छन्	-8.22792
▁माथि	-8.23155
▁देखेँ	-8.23787
▁उहाँकहाँ	-8.24093
▁पा	-8.24204
▁थिएँ	-8.24458
▁तिमीहरूमा	-8.2449
▁विश्‍वासद्वारा	-8.24567
▁स्वर्गदूत	-8.24662
▁पावललाई	-8.2483
▁चेलाहरूलाई	-8.24836
▁ज	-8.24945
▁बन	-8.24994
▁गर्छौं	-8.2513
▁शरीरमा	-8.25299
▁वचनहरू	-8.25563
▁त्यहाँबाट	-8.25722
▁हुन्छन्	-8.26085
▁कान	-8.26277
▁यसले	-8.26479
▁सुन्‍न	-8.26617
▁थियौ	-8.26701
▁वर्ष	-8.26812
▁मरियम	-8.26952
▁भेला	-8.26952
▁पश्‍चात्ताप	-8.27014
▁साथ	-8.27187
▁अब्राहाम	-8.272
▁गर्नेछन्	-8.27379
▁माग	-8.27395
▁रात	-8.27574
ति	-8.27621
▁हुँदै	-8.27819
▁ज्योति	-8.27902
▁समुद्र	-8.28302
ुपर्ने	-8.2856
▁यहूदा	-8.28838
▁अर्थ	-8.28863
▁आउँदै	-8.28864
▁जीवनको	-8.29096
▁तपाईंहरू	-8.29261
विना	-8.29428
्दैन	-8.29562
▁चिन	-8.29618
▁छोड	-8.29701
▁प्रभुको	-8.29779
्‍छ	-8.2979
▁त्यसका	-8.29792
▁उहाँमा	-8.29802
्छौ	-8.29843
▁शिर	-8.30772
यस	-8.30967
▁जाने	-8.31131
▁पुजारीहरू	-8.31299
्दा	-8.31421
▁ज्ञान	-8.31798
नेछ	-8.31869
▁ढुङ्गा	-8.31959
▁सुनेका	-8.32485
▁फरिसीहरू	-8.32663
▁पाउन	-8.32757
▁यहूदीहरू	-8.32796
▁रहो	-8.32823
▁गरिएका	-8.32986
▁सु	-8.33104
▁तिनीहरूमध्ये	-8.3329
▁पृथ्वीमा	-8.33479
▁मान	-8.3393
▁पिताले	-8.34111
त्र	-8.34648
▁बिन्ती	-8.34722
▁सिक्‍का	-8.34723
बारे	-8.3479
▁लगाए	-8.34822
ून्	-8.34844
▁परमेश्‍वरबाट	-8.34883
▁!”	-8.34953
▁गरेँ	-8.35066
▁दास	-8.35133
िक	-8.35556
▁आएर	-8.36178
▁गर्नु	-8.36187
्‍य	-8.36288
▁दि	-8.36316
▁मन्दिर	-8.36335
▁खराब	-8.3648
नी	-8.36493
▁वरदान	-8.36766
ेछु	-8.36937
▁नजिकै	-8.36952
▁परमेश्‍वरमा	-8.37136
▁कपडा	-8.37294
पा	-8.37403
▁छैनन्	-8.37484
▁आत्मामा	-8.37574
ण	-8.37576
मैले	-8.37913
एका	-8.3803
▁सुरु	-8.38196
▁यरूशलेममा	-8.38239
ाउनुभयो	-8.38434
्थे	-8.38642
स्त	-8.38732
▁भनेको	-8.38762
▁टाँग	-8.38846
▁अलग	-8.38847
▁ठिक	-8.38849
▁चेला	-8.39025
तिमी	-8.39306
ाऊ	-8.39417
▁सेवक	-8.39439
उन	-8.3945
▁ढ	-8.39619
▁यहूदीहरूले	-8.39813
▁प्रेरितहरू	-8.40072
नौ	-8.40141
▁बा	-8.40148
▁उहाँहरू	-8.40172
▁लाग	-8.4028
▁भनिन्	-8.40351
▁रहन	-8.40422
▁गएर	-8.40435
▁गालील	-8.40676
▁लागेको	-8.40748
▁आउँछ	-8.40874
▁खुसी	-8.40936
▁वरिपरि	-8.40974
▁जाँच	-8.40974
▁रुख	-8.41001
▁बस्‍ने	-8.41069
▁कसले	-8.41621
▁पाएका	-8.41665
▁कुराको	-8.41692
बाहेक	-8.42191
▁लेख	-8.42235
छु	-8.42438
्‍नुभयो	-8.42473
आ	-8.4259
▁पापको	-8.42608
▁आगो	-8.42896
▁मानिसहरूको	-8.42982
▁ठान	-8.43115
▁पटक	-8.43148
▁पिताको	-8.43565
▁ल्याउन	-8.43641
▁खाना	-8.43944
ुर	-8.44097
▁पुत्रलाई	-8.44157
▁राखे	-8.44289
▁येशूमा	-8.44306
▁सन्तानहरू	-8.44353
▁जहाज	-8.44441
▁हृदयमा	-8.44758
▁संसार	-8.45043
▁अगमवाणी	-8.4537
▁क्रोध	-8.4537
▁त्यस्तै	-8.4537
हा	-8.45384
▁खाए	-8.45406
▁सातवटा	-8.45437
▁सकून्	-8.45444
▁कुन	-8.45536
▁लिन	-8.46033
▁हौँ	-8.46098
▁स्वर्गदूतले	-8.46379
▁कहाँ	-8.46572
▁सिक	-8.46946
▁सक्छ	-8.4718
तर्फ	-8.47639
▁कचौरा	-8.47643
▁महिमित	-8.47643
▁शक्‍तिशाली	-8.47643
▁हुनाले	-8.47657
▁भन्‍नुभएको	-8.47705
▁विश्‍वासयोग्य	-8.47717
▁दिन्छु	-8.47814
▁गयो	-8.47857
भरि	-8.47866
▁धनी	-8.4802
्द	-8.48208
▁तिमीहरूमध्ये	-8.4835
ाउँदै	-8.48386
▁आत्माको	-8.48389
▁सिंहासन	-8.49044
▁गैरयहूदीहरू	-8.49107
▁कुराहरूको	-8.49822
▁खुट्टा	-8.49969
▁योसेफ	-8.49969
▁भन्‍नुहुन्छ	-8.50018
▁थाले	-8.50083
हरूमध्ये	-8.50609
िनेछ	-8.50718
▁होइनन्	-8.50796
▁स्वर्गदूतहरू	-8.508
▁पृथ्वी	-8.51404
▁त्यसमा	-8.5147
▁मरे	-8.5164
▁हिँड	-8.51656
▁राख्‍न	-8.52148
▁घृणा	-8.52349
▁थुमा	-8.52349
▁पुरुष	-8.52349
▁बिरामी	-8.52349
▁सहायता	-8.52349
▁देखेका	-8.52356
▁बोलाए	-8.52363
▁सात	-8.52405
▁बस्‍न	-8.52497
▁अति	-8.52512
▁यिनीहरू	-8.52568
▁छैनौ	-8.52841
झ	-8.52858
▁हामीसँग	-8.53065
▁खोज	-8.53225
ामा	-8.54253
▁सा	-8.54325
ली	-8.54613
▁लिए	-8.54648
▁आवश्यक	-8.54656
▁मार्न	-8.54674
▁बुद्धि	-8.54787
▁दोस्रो	-8.54788
▁सान्त्वना	-8.54788
▁अन्य	-8.548
▁उनका	-8.54803
▁प्रभुमा	-8.55019
▁साँच्‍चै	-8.55299
▁गर्नेछु	-8.55612
▁पशु	-8.55738
▁मन्दिरमा	-8.55885
▁बचाउन	-8.55927
नेछन्	-8.56085
▁यूहन्‍नाले	-8.56185
यौँ	-8.56331
▁धर्मशास्‍त्र	-8.56465
ाओ	-8.56528
▁उहाँसँग	-8.56743
▁विश्‍वासीहरू	-8.56785
▁भन्दा	-8.57024
▁गर्‍यौ	-8.57037
▁गर्नेछ	-8.57117
यी	-8.57157
ं	-8.57195
▁घमण्ड	-8.57288
▁थिइन्	-8.57288
▁सृष्‍टि	-8.57288
▁हजार	-8.57289
▁चार	-8.57382
ऊ	-8.57434
▁चाहन्छु	-8.5746
▁पिलातसले	-8.5761
तिमीहरूले	-8.57724
▁दिँदै	-8.57724
▁सबैलाई	-8.57807
▁स्‍त्रीहरू	-8.57884
▁वस्‍त्र	-8.5798
रि	-8.58059
▁जान्‍न	-8.58154
▁व	-8.58171
▁बाँध	-8.58515
ढ	-8.58761
▁बनाए	-8.58991
गा	-8.59042
▁प्रभुले	-8.59476
▁कस	-8.59599
▁बिउ	-8.59734
▁लगे	-8.59746
▁चिह्न	-8.59853
▁तेस्रो	-8.59853
▁निरन्तर	-8.59853
▁भई	-8.59883
▁यहूदिया	-8.59891
▁पार्नुभयो	-8.59908
▁देख्‍नुभयो	-8.59919
▁शास्‍त्रीहरू	-8.59936
▁सक्‍ने	-8.60007
▁शासक	-8.60392
▁लि	-8.60477
▁हुनेछैन	-8.60587
नि	-8.61862
▁मण्डली	-8.62233
नुभएको	-8.62419
घ	-8.62477
▁दृष्‍टान्त	-8.62484
▁बारनाबास	-8.62484
▁मार्ग	-8.62484
▁शपथ	-8.62484
▁सम्पूर्ण	-8.62484
▁देऊ	-8.62484
▁पुस्ता	-8.62484
▁सानो	-8.62493
▁जति	-8.62523
▁तपाईंका	-8.63021
▁बास	-8.63111
▁कसैको	-8.63298
▁सुन्‍ने	-8.63394
ँदै	-8.63466
▁पति	-8.63516
▁जन	-8.63526
▁सन्तान	-8.63704
हो	-8.6388
▁तिनका	-8.64656
▁नाम	-8.64707
▁शरीरको	-8.64792
थ्यो	-8.64849
▁धन	-8.64974
‍	-8.651
▁निर्माण	-8.65185
▁सम्पत्ति	-8.65187
▁अन्त्य	-8.65225
▁करार	-8.65296
▁पैसा	-8.65385
▁चाहिँ	-8.65506
▁मोशा	-8.65582
▁सत्यता	-8.65747
▁हामीहरू	-8.65904
▁आफूलाई	-8.6592
▁आत्माद्वारा	-8.65963
▁जाऊ	-8.66334
▁आज	-8.66604
▁तपाईंहरूलाई	-8.66801
हरूसँग	-8.66814
न्छ	-8.66872
अगि	-8.67018
▁डुङ्गा	-8.67039
इन्	-8.67088
▁शैतान	-8.6723
▁थोकहरू	-8.67454
▁भिडलाई	-8.67492
▁धैर्य	-8.67615
▁भर	-8.67803
▁उठे	-8.67832
▁पाए	-8.67847
▁हुनुहुने	-8.67908
▁उत्साह	-8.6791
▁दाहिने	-8.67949
▁उच्‍च	-8.67965
▁उद्धार	-8.67965
▁सन्देश	-8.67965
▁बाँकी	-8.67965
▁नहोस्	-8.67965
▁आकाश	-8.67966
▁साहस	-8.67966
▁दण्ड	-8.67974
▁चोर	-8.67976
▁जान्दछौँ	-8.68153
▁हुनुभयो	-8.68161
िर	-8.68357
▁बुझ	-8.68392
▁निन्दा	-8.68413
▁गर्नुहुनेछ	-8.68414
▁गर्दछन्	-8.68452
▁गर्नुहोस्	-8.68664
सहित	-8.68725
▁चाहे	-8.68954
▁खोल	-8.69028
▁मकहाँ	-8.69396
▁पुर्खाहरू	-8.699
▁इस्राएल	-8.69908
▁साक्षी	-8.70022
▁विश्‍वासको	-8.70253
▁दिनको	-8.70267
▁भिडले	-8.70401
▁अर्का	-8.70486
▁दिएर	-8.70489
▁धार्मिकताको	-8.70644
▁प्रशस्त	-8.70689
▁लग	-8.70717
▁पाँच	-8.70809
▁कृपा	-8.70821
▁उत्तराधिकार	-8.70822
▁उचित	-8.70822
▁उजाड	-8.70822
▁डराए	-8.70827
जस्ता	-8.70827
▁पठाउनुभयो	-8.70834
▁सकौँ	-8.71175
▁फर्केर	-8.71197
▁बढ	-8.71396
▁त्यहीँ	-8.7157
▁जनाले	-8.71663
्त	-8.72125
▁रहन्छ	-8.72229
▁तपाईंहरूले	-8.72352
स्‍	-8.72483
पूर्ण	-8.72808
▁झैँ	-8.72829
सक	-8.7338
▁आफू	-8.73387
▁एकै	-8.7361
▁शरीरलाई	-8.73643
▁भरोसा	-8.73763
▁मिश्र	-8.73763
▁विवेक	-8.73763
▁ध्यान	-8.73763
▁दूत	-8.73763
▁सकूँ	-8.73764
▁तरवार	-8.7377
▁बलियो	-8.73847
्यौ	-8.73871
▁थियौँ	-8.74165
▁ख्रीष्‍टका	-8.74167
▁सि	-8.7428
▁पत्र	-8.74437
ाई	-8.74524
▁कु	-8.74527
िन्छ	-8.74546
▁छोराछोरीहरू	-8.748
▁?’	-8.74965
▁हेर्न	-8.7499
▁हरेकले	-8.75025
▁प्रेरित	-8.75101
▁समुद्रमा	-8.75205
चाड	-8.75283
िने	-8.75398
▁राज्यको	-8.75634
▁मिल	-8.75694
▁बताउन	-8.75734
▁जमिन	-8.75869
▁देखाउन	-8.75949
▁ध	-8.76005
▁सबैभन्दा	-8.76092
▁रोक	-8.76446
▁बोल्ने	-8.76589
▁राज्यमा	-8.76707
▁ईश्‍वर	-8.76793
▁अधीनमा	-8.76793
▁आइपुगे	-8.76793
▁पुनरुत्थान	-8.76793
▁सदासर्वदा	-8.76793
▁विनाश	-8.76794
▁पहिर	-8.76794
▁गर्व	-8.76794
▁धिक्‍कार	-8.76838
▁व्यभिचार	-8.76839
मुनि	-8.76842
▁पर्‍यो	-8.76857
▁पल्ट	-8.76868
▁छक्‍क	-8.76921
▁जा	-8.76922
▁टुक्रा	-8.76927
▁बि	-8.76932
▁हुनुभएको	-8.77
▁हर	-8.77074
नुहुने	-8.77462
▁यसैले	-8.77593
▁देख्‍न	-8.77946
▁व्यवस्थाको	-8.78355
परमेश्‍वर	-8.78967
▁हुनु	-8.79083
▁एल्डरहरू	-8.79285
▁स्वर्गको	-8.79589
▁पाउ	-8.79671
▁बनाउन	-8.7971
▁भनेका	-8.79803
▁यसै	-8.79905
▁आशिष्	-8.79918
▁व्यवहार	-8.79918
▁तारा	-8.79921
▁नाश	-8.79965
▁सम्झना	-8.79979
▁गर्दछौ	-8.80021
▁सिद्ध	-8.80064
▁छेउमा	-8.80257
▁बलिदान	-8.80544
▁जनालाई	-8.80614
▁दिनसम्म	-8.80625
▁अर्कालाई	-8.81122
▁थिएनन्	-8.81147
▁पारि	-8.81209
▁कम	-8.81237
पन	-8.81509
▁लगाउन	-8.82068
▁हाल	-8.82293
▁कप्‍तान	-8.8232
▁हे	-8.82569
▁छल	-8.82787
▁नप	-8.82795
ँदा	-8.82807
▁भोग्‍न	-8.82862
पट्टि	-8.83045
्दछन्	-8.83122
गुरुज्यू	-8.83144
▁अनुमति	-8.83144
▁दाखमद्य	-8.83144
▁सहभागी	-8.83144
▁आनन्दित	-8.83283
▁छोरी	-8.8329
▁दियो	-8.83384
▁भन्छु	-8.83445
▁दिनेछु	-8.83445
ाइएको	-8.83495
▁हुनेहरू	-8.83638
▁गरेनन्	-8.83747
▁लुक	-8.83797
▁बताए	-8.83932
▁बोले	-8.84447
▁सह	-8.84607
▁मर्न	-8.84738
▁काममा	-8.8489
▁प्राण	-8.85021
▁व्यक्‍तिले	-8.85056
▁जि	-8.85106
▁छैनँ	-8.85183
▁हेरोद	-8.85662
▁सम्झ	-8.86248
ेछैनन्	-8.86262
▁आफ्नी	-8.86477
▁इन्साफ	-8.86477
▁खानेकुरा	-8.86477
▁बप्‍तिस्‍मा	-8.86477
▁स्वागत	-8.86477
▁शाऊल	-8.86477
▁प्रयोग	-8.86478
▁एलिया	-8.86478
▁माछा	-8.86478
▁घराना	-8.86478
ाव	-8.86523
▁रहेको	-8.86656
▁गर्‍यौँ	-8.86816
▁सुम्प	-8.8682
▁खराबी	-8.86945
▁ना	-8.87962
▁बाहेक	-8.87972
▁चल	-8.88251
नौँ	-8.88301
▁श	-8.88561
ाउनेछन्	-8.8887
▁बने	-8.89023
▁सबैका	-8.89302
स्थानमा	-8.89444
▁स्वतन्‍त्र	-8.89792
▁भेट्टाए	-8.89884
▁अथवा	-8.89926
▁इनाम	-8.89926
▁तिमोथी	-8.89926
▁धारण	-8.89926
▁निस्तार	-8.89926
▁परिश्रम	-8.89926
▁विरोध	-8.89926
▁लैजान	-8.89926
▁भलाइ	-8.89926
▁यति	-8.89927
▁अपमान	-8.89927
▁आत्मिक	-8.89931
▁आदेश	-8.89953
▁भेट	-8.89989
▁वास्तवमा	-8.90011
▁बस्‍नुभयो	-8.90051
▁आउनेछन्	-8.90152
▁दिनुहुनेछ	-8.90231
▁मुखबाट	-8.90337
▁हाले	-8.90834
हामी	-8.90917
▁गु	-8.90945
ती	-8.9095
▁उहाँसँगै	-8.91321
▁प्राणी	-8.91456
▁येशूकहाँ	-8.91529
▁देखेर	-8.91607
▁भेटी	-8.91613
▁सिकाउन	-8.91886
▁खाने	-8.91888
▁बाटोमा	-8.91976
▁चि	-8.92326
▁स्‍त्रीले	-8.92403
▁कमजोर	-8.92482
▁तँ	-8.92526
▁घडी	-8.92556
▁फिलिप	-8.92664
उँछ	-8.92783
▁देश	-8.92927
▁दाजुभाइहरू	-8.93081
वटा	-8.93358
▁शत्रु	-8.93366
▁मूर्ख	-8.93418
▁आगमन	-8.93497
▁ओर्ल	-8.93497
▁कठोर	-8.93497
▁पहिला	-8.93497
▁प्रश्‍न	-8.93497
▁चकित	-8.93497
▁बादल	-8.93497
▁अन्तिम	-8.93497
▁जवान	-8.93498
▁पुरानो	-8.935
▁दुईवटा	-8.93552
▁सकेनन्	-8.93573
▁नाप	-8.93587
▁बोलाउनुभयो	-8.93589
▁रहेका	-8.9361
▁हट	-8.93664
▁झुटा	-8.93713
यौ	-8.94098
▁भेडा	-8.94102
▁गर्नुहुने	-8.94258
▁पक्र	-8.94464
▁त्यसमाथि	-8.94559
▁बता	-8.94709
▁संसारका	-8.94888
्यौँ	-8.94906
्दछौ	-8.94914
▁फरिसीहरूले	-8.95049
▁चढ	-8.9524
▁भन्छ	-8.95265
▁विश्‍वासमा	-8.95279
सी	-8.95666
▁चिहान	-8.958
▁पठाउनुहुने	-8.95913
▁निकाल	-8.95924
▁होइनँ	-8.95972
▁भूत	-8.96079
अ	-8.96178
▁सहन	-8.96267
▁क्रुस	-8.96286
▁भाइलाई	-8.9632
▁बे	-8.96456
▁समुद्रको	-8.96458
▁पु	-8.96496
▁पुत्रको	-8.96499
▁आत्माहरू	-8.96803
▁पर्छ	-8.9684
▁पिउन	-8.96914
▁जान्दछौ	-8.97042
▁त्‍यस	-8.97127
▁परमप्रभुको	-8.97185
▁फुक	-8.97194
ृ	-8.972
▁अनुरोध	-8.97201
▁थोरै	-8.97201
▁दाखबारी	-8.97201
▁कटनी	-8.97201
▁पहाड	-8.97201
▁यसैकारण	-8.97201
▁यस्तै	-8.97201
▁झन्	-8.97203
▁ठहरि	-8.97293
▁निश्‍चयता	-8.97297
▁लाग्यो	-8.97306
▁होसियार	-8.97329
▁भनिएको	-8.97385
▁जग	-8.97395
▁भन्छौ	-8.97412
▁निस्केर	-8.97444
▁भन्छन्	-8.97484
▁गर्नुभएका	-8.97498
▁आपसमा	-8.97511
▁छोडेर	-8.9765
▁बित	-8.97658
▁ममा	-8.97711
▁गरोस्	-8.97737
▁गरिरहेको	-8.97806
▁लगाउने	-8.97931
▁सँगै	-8.98365
▁इस्राएलका	-8.98504
▁त्याग	-8.9872
▁भनिने	-8.98936
▁भएकाहरू	-8.99099
▁लागेका	-8.9918
▁होला	-8.99584
▁मुख	-8.99614
म्	-8.99621
▁पुग	-8.99817
पर	-8.99912
▁जाओ	-9.00035
मानिस	-9.00101
▁तुल्या	-9.00763
मलाई	-9.00822
▁खान्छ	-9.00831
▁आश्‍चर्य	-9.01047
▁छुटकारा	-9.01047
▁शक्ति	-9.01047
▁सुरक्षित	-9.01047
▁आग्रह	-9.01047
▁कैदी	-9.01047
▁प्रकारले	-9.01047
▁प्रसन्‍न	-9.01047
▁बिहान	-9.01047
▁जम्मा	-9.01047
▁वेदी	-9.01048
▁सहमत	-9.01052
▁छाप	-9.01061
▁रोग	-9.01083
▁सुरुदेखि	-9.01172
▁आमेन	-9.0118
▁राखिएको	-9.01238
▁अधर्मी	-9.01363
▁सय	-9.01368
▁गरून्	-9.01441
▁खोजी	-9.01441
▁पार्ने	-9.01522
▁उभिए	-9.01596
▁बन्‍न	-9.01612
▁दिनुहोस्	-9.01616
▁नाउँको	-9.01917
▁दिइयो	-9.02051
▁दिनपछि	-9.02197
▁जमिनमा	-9.02237
द्र	-9.02345
ल्ल	-9.02396
▁कुरालाई	-9.02401
▁कार्य	-9.02539
िरहनुभएको	-9.02801
▁यहूदीहरूका	-9.02957
▁पापहरू	-9.03138
▁योग्य	-9.03244
▁गरि	-9.03267
▁व्यक्‍तिलाई	-9.03282
▁कुराहरूलाई	-9.03356
▁पापीहरू	-9.03397
▁दिएको	-9.03421
▁चाहन्छौ	-9.03518
▁पितालाई	-9.03664
▁हानि	-9.03708
ाओस्	-9.03828
▁देखेको	-9.0401
ई	-9.04023
▁परेका	-9.04033
▁अन्धकार	-9.04112
▁विरुद्ध	-9.04136
▁शासकहरू	-9.04205
▁प्रभुलाई	-9.043
▁न्यायको	-9.04384
▁लगा	-9.04565
▁ख्रीष्‍टलाई	-9.04817
▁धार्मिक	-9.04918
▁अन्त	-9.04992
▁ख्रीष्‍टले	-9.05002
▁आउँदा	-9.05047
▁उपवास	-9.05047
▁दृष्‍टिविहीन	-9.05047
▁यौन	-9.0505
▁पढ	-9.05099
▁लिनुभयो	-9.05159
▁बसिरहेका	-9.05179
▁पछ्याए	-9.05455
▁हेर्नुहोस्	-9.05563
▁अवस्थामा	-9.05637
तिमीले	-9.0568
▁पस्‍न	-9.05719
▁लगाएर	-9.05829
▁अर्कोलाई	-9.05928
▁भेट्न	-9.05973
▁उभि	-9.05976
▁मोशाले	-9.06261
▁पाउने	-9.06419
▁मृत्युबाट	-9.06453
▁पृथ्वीका	-9.06546
▁सुसमाचारको	-9.06656
▁विश्राम	-9.06702
्‍यो	-9.0698
▁मालिकले	-9.07154
▁बन्द	-9.07389
▁सेवकहरू	-9.08027
▁गाउँ	-9.08264
▁महिमाको	-9.08586
प्	-9.08723
▁गरिब	-9.09167
▁कैसर	-9.09172
▁मृत	-9.09198
▁उत्तम	-9.09214
▁प्रत्येक	-9.09214
▁प्राचीन	-9.09214
▁मुकुट	-9.09214
▁नसक्‍ने	-9.09214
▁त्यसैकारण	-9.09214
▁पेट	-9.09216
▁धोका	-9.09216
▁झ्यालखानामा	-9.09219
हामीले	-9.09246
▁माकेडोनिया	-9.09268
▁चाहना	-9.09273
हीन	-9.09371
▁दुःखित	-9.09372
▁योजना	-9.09441
ास	-9.09557
▁हातले	-9.09601
▁अगुवाहरू	-9.09655
ओस्	-9.09693
▁होऊन्	-9.09726
्थ्यो	-9.09762
▁गरिरह	-9.09837
▁गर्दछौँ	-9.09854
▁मृत्युको	-9.09888
▁बोलाउन	-9.10063
▁कहाँबाट	-9.10111
▁सुनेँ	-9.10248
▁वि	-9.10304
▁नभएको	-9.10316
▁अङ्गहरू	-9.1038
▁गरिन	-9.10468
छौँ	-9.1047
▁डुङ्गामा	-9.10628
▁बेच	-9.11034
▁दाऊद	-9.11102
▁बुझ्‍न	-9.11726
उहाँ	-9.1178
त्यस	-9.12436
▁पि	-9.12441
▁गरेनौ	-9.12534
▁ठहर	-9.12534
आफ्ना	-9.12617
ियोस्	-9.13137
पूर्वक	-9.1318
▁चुन	-9.13198
▁उहाँद्वारा	-9.13246
▁चम्क	-9.13552
▁खाँचो	-9.13561
▁चाँडै	-9.13561
▁सूर्य	-9.13561
▁हाकिम	-9.13561
▁जससँग	-9.13562
▁प्रकाश	-9.13562
▁वास्ता	-9.13564
▁यस्ता	-9.13564
▁कोठा	-9.13564
▁नपरोस्	-9.13588
▁बनाइएको	-9.13617
▁काट	-9.13642
▁रहोस्	-9.13708
दिने	-9.13746
▁सकोस्	-9.13776
▁दिन्छ	-9.13809
▁खोजे	-9.13818
▁सट्टामा	-9.13914
इरहेका	-9.14021
▁होऊ	-9.14143
▁होइनौ	-9.14259
▁निस्क	-9.14264
ुभएन	-9.14293
▁पद	-9.14343
िनँ	-9.14358
▁त्यससँग	-9.14473
▁तँलाई	-9.1459
▁हेरोदले	-9.14642
ऊन्	-9.15308
▁प्रेममा	-9.15519
▁तुल्याउन	-9.15967
▁घरको	-9.16421
▁मरेका	-9.166
▁चिने	-9.16641
▁तिनीसँग	-9.16718
▁खस	-9.16952
▁चाहन्छ	-9.17087
▁भाषा	-9.17122
साँच्‍चै	-9.17153
▁पुस्तक	-9.17177
▁गर्दैनौ	-9.17335
▁भेडाहरू	-9.17338
▁चाह	-9.17386
शा	-9.17525
न्‍न	-9.17594
ुहुन्‍न	-9.17708
▁पापी	-9.17712
▁धर्म	-9.17758
▁जिउन	-9.17822
▁यसमा	-9.17981
▁मानिसहरूसँग	-9.18053
▁बालकहरू	-9.18056
▁फालि	-9.18099
▁शबाथ	-9.18107
▁अपराध	-9.18107
▁उत्तर	-9.18107
▁एउटी	-9.18107
▁चर्को	-9.18107
▁ठेस	-9.18107
▁तुरही	-9.18107
▁निर्देशन	-9.18107
▁प्रतीक्षा	-9.18107
▁बत्ती	-9.18107
▁यशैया	-9.18107
▁सङ्ख्या	-9.18107
▁सेतो	-9.18107
▁कस्तो	-9.18107
▁सामुन्‍ने	-9.18108
▁पुरै	-9.18108
▁उही	-9.18108
▁उपस्थितिमा	-9.18108
▁गाड	-9.18109
▁जागा	-9.18136
▁कडा	-9.18138
▁कराए	-9.1814
▁सुन्छ	-9.18161
▁लेखिएका	-9.18172
▁पसे	-9.18188
▁मारे	-9.18223
▁लाभ	-9.18244
▁नगर्ने	-9.18328
▁कुल	-9.18416
▁गर्नेहरूलाई	-9.1847
दिए	-9.18614
▁अरूहरूले	-9.18716
▁ल्याउने	-9.18792
▁सभाघरमा	-9.18957
▁भाइहरूलाई	-9.19158
▁एकसाथ	-9.1921
रण	-9.19424
▁भूतहरू	-9.19508
▁गर्नलाई	-9.19516
▁फर्के	-9.19535
▁सहरको	-9.20034
एक	-9.2006
नुभएका	-9.20131
चाडको	-9.2048
▁पठाएका	-9.20696
▁यूहन्‍नालाई	-9.20706
▁देख्‍ने	-9.2074
▁पाएको	-9.2076
▁सक्दैनौ	-9.21054
▁)	-9.21095
▁लेखे	-9.21257
▁कार्यहरू	-9.21394
▁भोज	-9.21638
▁चिन्ह	-9.21719
ँदैन	-9.21743
्ला	-9.2177
िदिए	-9.21777
▁केहीले	-9.21884
मेरो	-9.21928
▁सोच	-9.21938
▁परीक्षा	-9.21939
▁पत्रुसलाई	-9.22021
पत्र	-9.22104
▁पुगे	-9.22542
▁अनैतिक	-9.22737
ुभएपछि	-9.22858
▁अनुहार	-9.22869
▁गिल्ला	-9.22869
▁निर्णय	-9.22869
▁लामो	-9.2287
▁चिन्ता	-9.2287
▁मित्र	-9.22874
▁चुनिएका	-9.22903
न्‍ना	-9.22904
▁आउनुभएको	-9.22973
▁रिस	-9.23002
▁अधिकारीहरू	-9.23092
▁जान्छ	-9.23131
▁मृतकहरूबाट	-9.23153
वि	-9.23311
▁दिनुहुन्छ	-9.23366
▁हुनुपर्छ	-9.23372
▁गर्नेछौ	-9.23506
ाउनेछ	-9.23514
▁दस	-9.23518
िलो	-9.23691
▁दृष्‍टिमा	-9.23761
▁पो	-9.23935
ग्र	-9.24109
▁आफूले	-9.24227
▁परेको	-9.24333
▁तर्क	-9.24428
▁जाल	-9.24485
न्छन्	-9.2483
▁गरेकी	-9.24881
▁कसै	-9.25016
▁ख्रीष्‍टद्वारा	-9.25143
▁छोडे	-9.2526
▁साथमा	-9.25329
▁धन्य	-9.25503
▁सत्यताको	-9.25645
▁सभाघर	-9.26
▁ममाथि	-9.26264
▁सम	-9.26354
▁पक्रे	-9.26431
▁तिनीहरूमाथि	-9.26459
▁क्षेत्र	-9.26869
विश्‍वास	-9.26922
▁पृथ्‍वी	-9.26927
▁गुप्‍त	-9.26931
तिनीहरू	-9.26951
जाति	-9.27004
उठ	-9.2706
▁दृष्‍टि	-9.27064
▁गरिनेछ	-9.27201
▁सुम्पि	-9.27222
्छौँ	-9.27369
▁स्थान	-9.27568
▁इसहाक	-9.27869
▁घुँडा	-9.27869
▁विपत्ति	-9.27869
▁स्पष्‍ट	-9.27869
▁तथापि	-9.27869
▁शासन	-9.27869
▁साँझ	-9.27869
▁एसिया	-9.27869
▁बाँड	-9.27869
▁स्वर्गीय	-9.27869
▁चोट	-9.2787
▁खेत	-9.2791
कर्म	-9.27911
▁निश्‍चय	-9.27963
▁बितेर	-9.27987
▁आइन्	-9.27997
▁झुटो	-9.2803
▁घरभित्र	-9.28061
▁लड	-9.28134
▁गर्नुहुँदा	-9.2814
▁बतास	-9.28192
▁बलि	-9.28202
▁ठुला	-9.28343
▁खोल्न	-9.28435
▁हुनेछौ	-9.28474
▁भोक	-9.28673
▁बल	-9.28731
▁राख्‍ने	-9.28773
▁परीक्षामा	-9.28856
▁भाषामा	-9.28904
▁आत्मालाई	-9.28963
▁मण्डलीलाई	-9.2938
▁दिनहरूमा	-9.29402
▁खाँदै	-9.29492
▁छैनौँ	-9.29552
▁संसारलाई	-9.29663
▁पर्ने	-9.29768
▁गैरयहूदीहरूका	-9.29805
ाक	-9.30215
▁सुनेर	-9.3024
▁अब्राहामका	-9.30282
▁पारे	-9.30348
▁बनाउने	-9.30451
▁उहाँमाथि	-9.30488
▁मोशाको	-9.30786
▁हान	-9.30843
▁भोग	-9.30912
ुहुँदा	-9.30943
▁तिनीहरूसँगै	-9.30956
▁आउनेछ	-9.31221
▁निकाल्न	-9.31295
र्‍यो	-9.31327
माझ	-9.31607
▁गएका	-9.31668
▁आज्ञाहरू	-9.3168
ाइरहेका	-9.31998
▁डाँडा	-9.32187
त्यसो	-9.324
▁सोर	-9.32507
▁छोराहरू	-9.32578
्दिनँ	-9.3286
ुहुन्थ्यो	-9.33018
▁भाँच	-9.33109
▁उद्देश्य	-9.33132
▁किसिमको	-9.33132
▁घोडा	-9.33132
▁जैतून	-9.33132
▁नियुक्त	-9.33132
▁प्रयास	-9.33132
▁भूतात्मा	-9.33132
▁सफा	-9.33132
▁उभिरहेका	-9.33132
▁बोलाइएका	-9.33132
▁नत्रता	-9.33133
▁जान्दछु	-9.33133
▁अविश्‍वासी	-9.33133
▁दाख	-9.33135
▁नदी	-9.33148
▁बिदा	-9.33197
▁हल्ला	-9.33203
▁लगाउँछ	-9.33205
▁अनुसार	-9.33232
▁सक्छौ	-9.33233
▁हुनुहुन्‍न	-9.33267
▁जन्मेको	-9.33311
▁रहने	-9.33465
▁अस	-9.33502
▁यूहन्‍नाको	-9.33514
▁यिनी	-9.33554
▁उनीसँग	-9.33617
▁साना	-9.33674
▁मार्ने	-9.33779
▁दोषी	-9.34022
▁चिहानमा	-9.34485
मय	-9.3457
▁बोक	-9.34932
ाउँदछ	-9.34981
▁संसारले	-9.35079
▁योग्यको	-9.35255
▁परमेश्‍वरसँग	-9.35375
▁जहाजमा	-9.35403
▁जल	-9.3549
▁स्वर्गदूतलाई	-9.35541
उँदै	-9.35732
▁दु	-9.35855
▁राजाहरू	-9.36606
▁तिनीहरूकहाँ	-9.36722
▁नासरत	-9.36843
▁आँखामा	-9.37145
▁बटुल	-9.37664
▁उनीहरूका	-9.37681
परमप्रभु	-9.37733
यिनी	-9.37734
तिम्रो	-9.37742
जसले	-9.37766
▁झुट	-9.38263
▁पिताबाट	-9.38439
र्थ	-9.3858
▁दिइनेछ	-9.38687
▁परिषद्	-9.38687
▁अन्धो	-9.38688
▁अस्तित्वमा	-9.38688
▁आफ्‍नो	-9.38688
▁उज्यालो	-9.38688
▁टापु	-9.38688
▁दर्शन	-9.38688
▁फरक	-9.38688
▁फेस्तस	-9.38688
▁विभिन्‍न	-9.38688
▁सर्प	-9.38688
▁गुणा	-9.38688
▁चाहन्थे	-9.38688
▁मुट्ठो	-9.38688
▁नहोओ	-9.38688
▁सहकर्मी	-9.38688
▁नियम	-9.38688
▁तरिकाले	-9.38689
▁लोभ	-9.3869
▁बुद्धिमान्	-9.38691
▁टेक	-9.38691
▁आज्ञाकारी	-9.38691
▁जिउँछ	-9.3871
▁प्रमाणित	-9.3872
▁आइरहेको	-9.38744
▁नहुने	-9.38752
▁निश्‍चित	-9.38773
▁पक्रन	-9.388
▁हातपट्टि	-9.38803
▁अनैतिकता	-9.38842
▁वृद्धि	-9.38849
त्ति	-9.38861
▁हत्या	-9.38882
▁दिनुभएन	-9.38889
▁गर्दिनँ	-9.38903
▁त्‍यो	-9.38953
▁आवश्यकता	-9.38994
▁तैँले	-9.3905
▁आउँछन्	-9.39071
▁अहिलेसम्म	-9.39153
▁पिउने	-9.39162
▁भरिएका	-9.39244
▁वचनको	-9.3939
▁गर्नुपर्ने	-9.39511
▁भन्‍नेछन्	-9.39567
▁दिनुहुने	-9.39683
▁सोरमा	-9.39693
▁धन्यका	-9.39697
▁नपर	-9.39728
▁चिन्हहरू	-9.40052
▁तरै	-9.40446
▁महा	-9.40673
▁दाऊदको	-9.4075
योग्य	-9.40838
▁विश्रामको	-9.40842
▁उनीहरूको	-9.40864
▁सिंहासनमा	-9.40968
▁गराउन	-9.41084
▁आएँ	-9.4135
▁बालकलाई	-9.41507
▁लागिरह	-9.4166
▁पत्‍नीलाई	-9.41668
▁जान्‍ने	-9.41794
▁भएकाहरूलाई	-9.41995
▁आमालाई	-9.42022
▁नभए	-9.42121
▁प्रति	-9.42188
▁फरिसी	-9.42213
▁मरेकाहरू	-9.42689
▁व्यवस्थाले	-9.43396
किन	-9.43478
निन्दा	-9.43616
‘	-9.43626
▁विधवा	-9.43664
▁उचाल	-9.44147
▁भन्दछ	-9.44221
ेसम्म	-9.44232
▁बचा	-9.44459
▁जान्दैनौ	-9.44537
▁चढाउन	-9.44538
▁या	-9.44548
▁तथा	-9.4457
बमोजिम	-9.4457
▁दुलहा	-9.4457
▁निर्दोष	-9.4457
▁फिर्ता	-9.4457
▁सिद्धान्त	-9.4457
▁बोलावट	-9.4457
▁विलाप	-9.4457
तिहाइ	-9.4457
▁चालिस	-9.4457
▁नगर्नू	-9.4457
▁शोक	-9.4457
▁बोट	-9.44571
▁निराश	-9.44571
▁बहिनी	-9.44571
▁अन्यजातिहरू	-9.44571
▁विजय	-9.44572
▁केवल	-9.44573
▁दोषरहित	-9.44585
▁पठाउनुभएको	-9.44596
▁व्यक्ति	-9.44602
क्‍त	-9.44602
▁अचम्मित	-9.44617
▁अन्‍न	-9.4467
▁बोल्दै	-9.44739
▁तिमीसँग	-9.4486
▁गर्नुहुन्‍न	-9.44928
▁भनाइ	-9.44951
▁रूपले	-9.45053
▁फैलियो	-9.45173
▁सक्छौँ	-9.45176
▁समयसम्म	-9.45293
▁लिने	-9.45578
▁भरिएको	-9.45603
▁दाऊदका	-9.45807
▁पर्न	-9.45937
▁मुखमा	-9.46036
▁देशमा	-9.46147
▁बोलेका	-9.46415
▁धर्मशास्‍त्रले	-9.46573
▁पारेको	-9.46593
▁गर्नू	-9.46708
दो	-9.47006
▁सहरहरू	-9.47091
▁भय	-9.47124
▁आगोमा	-9.47136
▁सिपाही	-9.47155
▁सिपाहीहरू	-9.47227
▁सोध्‍न	-9.47271
▁आऊ	-9.4774
▁परमप्रभुले	-9.47854
▁आफूसँग	-9.47967
▁जानेछ	-9.48375
▁विश्‍वासीहरूको	-9.48383
▁भयौ	-9.48477
▁पाउनेछ	-9.4848
▁विश्‍वासी	-9.48525
▁तिमीहरूमाथि	-9.49376
▁अभिलाषा	-9.49894
▁अवस्था	-9.49894
▁पिलातस	-9.49912
▁व्यवस्थाका	-9.49954
दैन	-9.502
▁व्यवस्थामा	-9.50238
जाऊ	-9.50258
▁थाल	-9.50426
▁पाल	-9.50604
▁परदेशी	-9.50687
िनेछन्	-9.50747
▁उदाहरण	-9.5082
▁ओछ्यान	-9.5082
▁कोसिस	-9.5082
▁चट्टान	-9.5082
▁टाउको	-9.5082
▁दमस्कस	-9.5082
▁पोशाक	-9.5082
▁फाइदा	-9.5082
▁फ्याँकि	-9.5082
▁बहुमूल्य	-9.5082
▁राम्रो	-9.5082
▁विराजमान	-9.5082
▁शारीरिक	-9.5082
▁सक्षम	-9.5082
▁समर्पित	-9.5082
▁स्वभाव	-9.5082
िदेऊ	-9.5082
▁लेवी	-9.5082
▁समूह	-9.5082
▁लुगा	-9.5082
▁बदला	-9.5082
▁माटो	-9.5082
▁त्यस्तो	-9.50821
▁खबर	-9.50821
▁कुरो	-9.50821
▁तिर्खा	-9.50823
▁विश्‍वस्त	-9.50825
▁आसन	-9.50827
▁जसका	-9.50828
▁एकलै	-9.50832
▁समझ	-9.50846
▁सोध्‍नुभयो	-9.50865
बन्ध	-9.50876
▁कैसरिया	-9.50883
▁हेर्नुभयो	-9.50885
▁सभाघरहरूमा	-9.50886
▁नम्रता	-9.50935
▁नबन	-9.50949
▁खोलिदि	-9.50996
▁अर	-9.51026
▁बहस	-9.51059
उहाँले	-9.5109
▁सुनोस्	-9.51093
▁तेरो	-9.51108
▁नोकरहरू	-9.51117
▁बह	-9.51206
▁भोजन	-9.51213
▁बिउहरू	-9.51218
▁डाह	-9.51253
्‍नुभएको	-9.51272
▁गुरु	-9.51371
▁आउनेछु	-9.51443
▁महिमामा	-9.5158
▁नदेख	-9.51604
▁मानिसहरूबाट	-9.51608
▁देख्‍नेछौ	-9.51641
▁नभएका	-9.51777
▁दाजुभाइ	-9.51788
▁साथै	-9.51879
▁तयारी	-9.52018
▁भोजमा	-9.52073
▁पुस्तकमा	-9.52124
▁जोड	-9.52134
▁अन्धकारमा	-9.52316
▁भेटे	-9.5264
▁बनाइ	-9.52678
▁जीवनमा	-9.52737
▁लेख्‍न	-9.52767
कि	-9.52866
▁सत्यतामा	-9.53025
▁गरौँ	-9.53245
▁हरेकलाई	-9.5344
▁जबसम्म	-9.53586
▁जिउने	-9.53668
▁अब्राहामले	-9.53673
▁ज्ञानमा	-9.53899
▁बचाइ	-9.53949
▁पुजारीहरूले	-9.53961
जे	-9.54013
▁यहूदीहरूलाई	-9.54032
▁हिँडे	-9.54078
▁प्रार्थनामा	-9.54082
▁सुनेको	-9.54271
▁निकाले	-9.54409
▁त्याग्‍न	-9.54685
▁हृदयलाई	-9.54989
▁वचनलाई	-9.55027
▁पृथ्वीको	-9.55094
रहँदा	-9.55229
▁आगोको	-9.55419
▁गरिन्	-9.55476
▁राखेको	-9.55714
▁उठाइ	-9.55877
▁भएन	-9.55888
▁हक	-9.55989
▁पठाउन	-9.56056
▁यहूदीहरूको	-9.56329
▁शर्म	-9.56547
▁सिलास	-9.56672
▁उद	-9.56715
नेछौ	-9.56761
▁दौड	-9.57074
इदिए	-9.57297
पूर्व	-9.57367
▁अचम्म	-9.57433
▁गरिदि	-9.57441
द्ध	-9.5748
▁मूल्य	-9.57486
▁अर्पण	-9.57487
▁चेतावनी	-9.57487
▁दण्डवत्	-9.57487
▁पीडा	-9.57487
▁मर्कूस	-9.57487
▁यर्दन	-9.57487
▁विशेष	-9.57487
▁परिवार	-9.57487
▁लडाइँ	-9.57487
▁चुप	-9.57488
▁वशमा	-9.57488
▁जसद्वारा	-9.57488
▁जनावर	-9.57492
▁मद्य	-9.57493
▁आमाबुबा	-9.57493
ुहुँदैन	-9.575
▁तेल	-9.57503
▁जित्‍न	-9.5751
▁अपवित्र	-9.5751
▁टाढै	-9.57523
▁युग	-9.57553
▁बनाओ	-9.57563
▁खोजिरहेका	-9.57573
्‍नुहुने	-9.57594
▁इस्राएलीहरू	-9.57602
▁मानव	-9.57653
▁गरिबहरूलाई	-9.57699
▁खोज्‍ने	-9.57784
▁सकेन	-9.57853
▁गइरहेको	-9.57916
▁शरीरका	-9.5798
▁गर्थे	-9.58159
▁सम्बन्धमा	-9.58182
▁उभिएर	-9.58204
▁गर्दैनन्	-9.58362
▁तिनै	-9.58436
▁गुप्‍तमा	-9.58761
▁हृदयको	-9.58952
नुहुन्छ	-9.59132
▁भन्‍छ	-9.59181
▁कप्‍तानले	-9.59242
▁पालना	-9.59383
▁शैतानले	-9.59544
▁पाउमा	-9.59606
▁हाँगाहरू	-9.59672
णी	-9.59702
▁त्यसबाट	-9.59707
▁बनाएका	-9.59851
▁परेर	-9.60083
ल्क	-9.60158
एसम्म	-9.60208
▁दासहरू	-9.60476
▁उहाँकी	-9.60555
▁स्थानमा	-9.60701
▁जोसँग	-9.60833
▁उठाउने	-9.60924
▁तपाईंसँग	-9.61093
▁बचाइनेछ	-9.61437
▁उठाउन	-9.61466
▁मण्डलीको	-9.61488
▁परमप्रभुका	-9.6152
▁देख्छौ	-9.61663
▁हातबाट	-9.61826
वाला	-9.62267
▁पूजाहारी	-9.62455
▁हराए	-9.62464
▁गालीलको	-9.62509
▁उठाउनेहरू	-9.62558
▁बोक्‍न	-9.62807
▁राजाले	-9.62808
छैनौ	-9.63084
▁अङ्ग	-9.63094
▁मुक्‍ति	-9.63144
िसकेको	-9.63146
▁दिनहरू	-9.63211
▁रहिरहन	-9.63334
आफ्नो	-9.63686
सबै	-9.63687
▁भइसक	-9.63913
▁डा	-9.64189
▁वृद्ध	-9.64421
ुहुन्‍छ	-9.64491
▁नम्र	-9.64501
▁झु	-9.64517
▁उपस्थित	-9.64624
▁दाजु	-9.64627
▁अनाज्ञाकारी	-9.64629
▁छलफल	-9.64629
नडराऊ	-9.64629
▁अभिषेक	-9.64629
▁आफैलाई	-9.64629
▁उत्कृष्‍ट	-9.64629
▁कहिले	-9.64629
▁गनगन	-9.64629
▁जिब्रो	-9.64629
▁टेबल	-9.64629
▁तैपनि	-9.64629
▁पछाडि	-9.64629
▁परिणाम	-9.64629
▁परिवर्तन	-9.64629
▁मृत्युदण्ड	-9.64629
▁रहस्य	-9.64629
▁राज्‍य	-9.64629
▁सतावट	-9.64629
▁सम्भव	-9.64629
▁स्तिफनस	-9.64629
▁हेरचाह	-9.64629
▁कठिन	-9.6463
▁छोरो	-9.6463
▁ज्याला	-9.6463
▁विवाद	-9.6463
▁बोझ	-9.6463
▁अघि	-9.6463
▁मिलाप	-9.6463
▁भवन	-9.6463
▁झ्यालखानाका	-9.64631
▁बजार	-9.64631
▁रोमी	-9.64631
▁युद्ध	-9.64635
▁पाखण्डीहरू	-9.64637
▁कामुक	-9.64637
▁सामान	-9.64639
▁जरा	-9.6464
▁उसका	-9.64642
▁तर्फबाट	-9.64643
▁अधार्मिकता	-9.64645
▁नरक	-9.64645
होइन	-9.6465
िदिनुहोस्	-9.64653
▁पाँचवटा	-9.64664
▁पर्नुभयो	-9.64666
▁दिइरहेका	-9.6468
▁थाल्यो	-9.64699
▁मौका	-9.64709
▁जान्‍नुहुन्छ	-9.64719
▁सर्वोच्‍च	-9.64741
▁हुनुहुन्‍छ	-9.64747
▁आउनुहुनेछ	-9.64764
▁सिकाउनुभयो	-9.64765
▁पर्दैन	-9.64776
▁लाग्‍ने	-9.64783
▁साथीहरू	-9.64783
▁चढेर	-9.64793
▁बोल्नुभयो	-9.64797
जब	-9.64875
▁राख्‍नुभयो	-9.64887
▁वर्षसम्म	-9.64908
▁प्रशस्तता	-9.6497
▁स्वर्गतिर	-9.64979
▁दिनेछन्	-9.6505
▁चेलाहरूसँग	-9.65105
▁शरीरअनुसार	-9.65109
▁पार्नुभएको	-9.65165
▁सब	-9.65221
▁इच्छाअनुसार	-9.65246
▁छिमेकीलाई	-9.65264
इरहेको	-9.65282
▁अप	-9.65284
▁सक्दैनन्	-9.6531
▁दिन्छन्	-9.65566
▁शर्ममा	-9.65649
▁चढा	-9.65675
▁शिक्षकहरू	-9.65825
▁भन्‍नु	-9.65853
▁व्यवस्थाद्वारा	-9.66018
▁योग्यका	-9.66291
▁विश्राममा	-9.66308
▁राखेर	-9.66522
▁बोल्छ	-9.66756
▁समात	-9.66763
▁धन्यको	-9.66968
▁मण्डलीमा	-9.67196
▁लेखेको	-9.67261
▁बाँच	-9.67336
▁सुन्दै	-9.67539
न्जेलसम्म	-9.67574
▁बाहिरी	-9.67741
▁ढुङ्गाले	-9.67793
स्थान	-9.67814
▁गालीलमा	-9.67851
▁बाँधे	-9.67897
▁ज्योतिमा	-9.68356
दिनुभयो	-9.68933
▁ग्रिकहरू	-9.68966
▁पशुको	-9.6931
िनेछैन	-9.69461
▁पछ्या	-9.69589
▁स्‍त्रीलाई	-9.69865
▁हुन्छौ	-9.69931
राख	-9.6995
▁मृत्युमा	-9.69968
▁मृतकहरू	-9.70304
▁मन्दिरको	-9.70336
▁मागे	-9.70433
▁भइ	-9.70826
▁हुन्छु	-9.71095
▁लाग्छ	-9.71111
जो	-9.71314
इनँ	-9.71345
▁छोडिदि	-9.71348
स्वर्ग	-9.71362
▁व्यर्थ	-9.71376
मेरा	-9.71387
किनकि	-9.71389
▁अगुवा	-9.71434
▁खो	-9.71823
जना	-9.72016
▁घट	-9.72258
ण्ड	-9.72276
▁वरदानहरू	-9.72311
▁अँध्यारो	-9.72322
▁अन्धा	-9.72322
▁आराम	-9.72322
▁कफर्नहुम	-9.72322
▁गहिरो	-9.72322
▁घोप्‍टो	-9.72322
▁झगडा	-9.72322
▁डरलाग्दो	-9.72322
▁थाहै	-9.72322
▁नागरिक	-9.72322
▁प्रस्तुत	-9.72322
▁फसल	-9.72322
▁बेखतना	-9.72322
▁भयभीत	-9.72322
▁भ्रष्‍ट	-9.72322
▁महसुस	-9.72322
▁व्‍यवस्‍था	-9.72322
▁सुरक्षा	-9.72322
▁स्थापित	-9.72322
▁स्वरूप	-9.72322
▁चिच्‍च्‍या	-9.72322
▁न्यायाधीश	-9.72322
▁व्यापार	-9.72322
▁सम्मान	-9.72322
▁मानवीय	-9.72322
▁कपाल	-9.72322
▁ईश्‍वरीय	-9.72322
▁त्यति	-9.72322
▁झरे	-9.72322
▁एफिससमा	-9.72326
▁छाती	-9.72327
▁बिचबाट	-9.72327
▁सभा	-9.72327
▁सँगसँगै	-9.7234
▁गर्जन	-9.72346
▁नभन	-9.72355
▁दिनुभएका	-9.72362
▁सुम्पिदिए	-9.72363
▁न्यायकर्ता	-9.72377
▁रोप	-9.72388
▁मर्नुभयो	-9.72394
▁भइरहेको	-9.72399
▁उठ्नेछ	-9.72429
▁दृढता	-9.72445
▁नदेओ	-9.72476
▁बनाउनुभयो	-9.72498
▁माग्‍ने	-9.72501
▁आउनुहुन्छ	-9.72506
▁भुइँमा	-9.72513
▁त्‍यसपछि	-9.72518
▁सिकाउँदै	-9.72598
▁शत्रुहरूलाई	-9.72611
▁मूर्खता	-9.72615
▁सुन्‍नुभयो	-9.72671
▁देख्यो	-9.7268
▁स्वरमा	-9.72743
▁दिन्छौँ	-9.72956
▁चाँदीका	-9.73007
▁जुनचाहिँ	-9.73154
िरा	-9.73234
▁दुष्‍टता	-9.73511
▁सोरले	-9.73583
▁आओ	-9.736
न्छु	-9.73771
▁गरियो	-9.73794
▁पृथ्‍वीमा	-9.73809
▁पर्ख	-9.73949
▁तिनीकहाँ	-9.74024
▁हुनेछौँ	-9.74067
नेहरू	-9.74335
▁घडीमा	-9.74424
▁भएकी	-9.74707
▁निस्के	-9.74779
▁बसाल	-9.74833
▁मात्रै	-9.74841
▁शास्‍त्रीहरूले	-9.74948
▁घटनाहरू	-9.75119
▁यरूशलेमबाट	-9.7523
िदेओ	-9.75314
बिच	-9.75364
्ति	-9.75867
▁जानेका	-9.76701
रिया	-9.77095
▁दियौ	-9.77513
▁छाडे	-9.77728
▁मण्डलीहरू	-9.78453
▁पठाइ	-9.78514
▁पाउनेछौ	-9.78516
▁पार्नेछ	-9.78603
▁शिक्षक	-9.7927
हेर्नुहोस्	-9.79694
साँचो	-9.79707
▁छेउ	-9.79751
▁लगाइ	-9.80239
त्यो	-9.80472
▁दृढ	-9.80522
ज्ञा	-9.80561
▁सिङ	-9.80584
कर्ता	-9.80604
▁आज्ञाकारिता	-9.80655
▁भण्डार	-9.80655
▁सङ्गी	-9.80655
टिपोटः	-9.80655
▁अजिङ्गर	-9.80655
▁असम्भव	-9.80655
▁आवश्‍यक	-9.80655
▁किसिमका	-9.80655
▁कोर्रा	-9.80655
▁खर्च	-9.80655
▁गर्भवती	-9.80655
▁गल्ती	-9.80655
▁गोडा	-9.80655
▁चुम्बन	-9.80655
▁टुरोस	-9.80655
▁नातेदार	-9.80655
▁नियुक्‍त	-9.80655
▁परम्परा	-9.80655
▁बेबिलोन	-9.80655
▁महिला	-9.80655
▁वादविवाद	-9.80655
▁विद्रोह	-9.80655
▁सन्तुष्‍ट	-9.80655
▁समाचार	-9.80655
▁सामदान	-9.80655
▁सोलोमन	-9.80655
▁स्थिर	-9.80655
▁हिब्रू	-9.80655
▁अर्कै	-9.80655
▁थाल्नुभयो	-9.80655
▁बारब्बा	-9.80655
▁माथिल्लो	-9.80655
▁मार्था	-9.80655
▁ल्याउँछ	-9.80655
▁खमिर	-9.80655
▁सहयोग	-9.80655
▁कुल्च	-9.80655
▁कामदारहरू	-9.80655
▁चाहन्‍नँ	-9.80655
▁सत्‍य	-9.80655
▁व्यवस्थापक	-9.80656
▁बाबु	-9.80656
▁हत्यारा	-9.80657
▁पतन	-9.8066
▁रिसाए	-9.80672
▁एकातिर	-9.80678
▁पठाइएका	-9.80681
▁श्रापित	-9.80686
▁पारिपट्टि	-9.80695
▁सिकाए	-9.80706
▁भइसकेको	-9.80716
▁अगुवाइ	-9.80726
▁समातेर	-9.80756
▁नभएसम्म	-9.80758
▁चिन्दैन	-9.80787
▁बोकेर	-9.80794
▁बनाउँछ	-9.80801
▁मन्दिरभित्र	-9.80805
▁हुनुहुँदा	-9.80856
▁कुनचाहिँ	-9.80884
▁बोल्दछ	-9.80904
▁तिर्न	-9.80912
▁भन्दछन्	-9.80997
▁भनिन्छ	-9.81032
▁दौडेर	-9.81046
▁स्वरले	-9.81062
▁जानेछन्	-9.81138
▁जान्दैन	-9.81157
▁पाउनेछन्	-9.81177
▁गरिन्छ	-9.81233
▁दान	-9.81247
▁सुन्छन्	-9.81273
अर्कालाई	-9.81371
▁हुनुहुनेछ	-9.81427
▁सिलासलाई	-9.81691
▁व्यर्थमा	-9.81693
हामीलाई	-9.81698
▁सक्छु	-9.81891
▁सिपाहीहरूले	-9.81931
▁मण्डलीहरूलाई	-9.81941
▁फर्की	-9.81981
▁गरिदिए	-9.82028
▁रगतद्वारा	-9.82056
▁लगेर	-9.82185
▁सभाघरका	-9.82193
▁डाँडामा	-9.82194
▁क्षेत्रमा	-9.82278
▁मृतकहरूको	-9.82414
▁बोली	-9.82449
▁नोकरहरूलाई	-9.82504
▁अनुग्रहद्वारा	-9.82524
▁मुक्‍तिको	-9.82549
▁गाउँमा	-9.82594
▁पठाइदिन	-9.83011
▁बुझे	-9.83412
▁लान	-9.83524
▁बसेर	-9.83594
▁प्रतिज्ञाहरू	-9.8377
▁चराहरू	-9.83785
▁चेलाले	-9.84106
▁ग्रिक	-9.84435
▁गरेपछि	-9.84491
▁भरिन	-9.84774
▁भोगे	-9.84988
▁सम्बन्ध	-9.85141
▁पर्नेछ	-9.85145
▁मनाउन	-9.85337
▁फलाउन	-9.85351
▁सुनाइ	-9.86836
▁सेनाहरू	-9.87009
▁बढे	-9.87178
तिन	-9.88094
्‍छन्	-9.88713
देश	-9.88717
तिम्रा	-9.88795
बाहिर	-9.88801
▁छिमेकी	-9.88936
▁हेर्ने	-9.89071
▁ढोकाहरू	-9.89169
आज	-9.89228
▁यु	-9.89677
▁महिना	-9.89678
गैरयहूदी	-9.89688
▁प्रमाण	-9.89693
▁आइपुग्	-9.89726
▁भोलि	-9.89745
▁अखैया	-9.89746
▁अनुशासन	-9.89746
▁घण्टा	-9.89746
नोटः	-9.89746
▁अन्द्रियास	-9.89746
▁आत्‍मा	-9.89746
▁ईर्ष्या	-9.89746
▁उत्कट	-9.89746
▁उत्पन्‍न	-9.89746
▁एलीशिबा	-9.89746
▁कर्नेलियस	-9.89746
▁गोठालो	-9.89746
▁घाँस	-9.89746
▁घृणित	-9.89746
▁जकरिया	-9.89746
▁टाउका	-9.89746
▁टेबुल	-9.89746
▁टोकरी	-9.89746
▁डाँकु	-9.89746
▁तालिम	-9.89746
▁तुच्छ	-9.89746
▁तुलना	-9.89746
▁थोमा	-9.89746
▁धुवाँ	-9.89746
▁नडराओ	-9.89746
▁नपुंसक	-9.89746
▁न्यायसङ्गत	-9.89746
▁पर्याप्‍त	-9.89746
▁पर्वत	-9.89746
▁प्रमुख	-9.89746
▁बिन्‍ती	-9.89746
▁भूकम्प	-9.89746
▁विभाजन	-9.89746
▁विश्‍वासघात	-9.89746
▁शुद्धिकरण	-9.89746
▁साङ्लाहरू	-9.89746
▁हिसाब	-9.89746
राम्रा	-9.89746
▁लगभग	-9.89746
▁कायम	-9.89746
▁धूप	-9.89746
▁प्रकारका	-9.89746
▁सजाय	-9.89746
▁सबेरै	-9.89746
▁सामरी	-9.89746
▁आश्‍चर्यकर्महरू	-9.89746
▁ख्याल	-9.89746
▁प्रदान	-9.89746
▁पर्खाल	-9.89747
▁प्रहार	-9.89747
▁भजन	-9.89749
▁गलत	-9.89749
▁पसार	-9.89749
▁मशक	-9.89755
▁ल्याओ	-9.89758
▁पिटे	-9.89759
▁सताए	-9.89764
▁नहोऊ	-9.89769
▁भाले	-9.89772
▁पिउँछ	-9.89777
▁ग्रहणयोग्य	-9.89794
▁सर्वशक्‍तिमान्	-9.89799
▁लाग्यौँ	-9.89808
▁बजे	-9.89829
उँदिनँ	-9.8984
▁उठाए	-9.8985
▁याद	-9.89897
▁खुसीसाथ	-9.89916
▁उत्साहित	-9.89932
▁मुक्ति	-9.89939
▁सुम्पिएको	-9.89943
▁फर्कनुभयो	-9.89967
▁भनिरहेका	-9.90042
▁निकै	-9.90046
▁भरिएर	-9.90101
▁स्वतन्‍त्रता	-9.9011
▁पक्षाघाती	-9.90133
▁बोल्छु	-9.90167
▁मूर्ति	-9.90172
▁मानौँ	-9.90213
▁व्यवस्थाअनुसार	-9.90251
▁यसैद्वारा	-9.90326
▁दिन्छौ	-9.9042
▁समेत	-9.90458
▁मर्ने	-9.90619
▁पाएँ	-9.90622
▁पार्छ	-9.90775
वाह	-9.90803
नुहुनेछ	-9.90838
जाओ	-9.90859
▁चिहानबाट	-9.90943
▁दिनुपर्छ	-9.91121
▁उनीकहाँ	-9.9119
▁मल्कीसेदेक	-9.91337
▁बटुले	-9.91474
▁भाँडाहरू	-9.91682
▁पारिनेछ	-9.91796
▁अरूहरूलाई	-9.91914
▁फिलिपले	-9.9196
▁नदि	-9.92314
▁नगरी	-9.92888
▁पुर्खा	-9.92986
▁पछ्याउने	-9.93056
▁पिए	-9.93242
▁दासी	-9.93418
आओ	-9.9349
िऊन्	-9.93685
▁हिँड्न	-9.94493
▁खोज्दै	-9.94899
▁सोध	-9.95074
▁बेच्‍न	-9.95623
▁जिउनेछ	-9.95965
▁नखा	-9.96274
▁वस्‍त्रहरू	-9.96924
▁भरिए	-9.97059
▁कपडाहरू	-9.97083
▁नलगा	-9.97585
▁रूप	-9.98034
हिन	-9.98103
▁मूर्तिहरू	-9.98383
िनुभए	-9.98519
▁फैल	-9.98698
ठुला	-9.98782
यहूदीहरू	-9.98789
▁खोज्छ	-9.98791
येशू	-9.98796
कसैले	-9.98802
▁चाँदी	-9.98852
यहाँ	-9.98875
▁अधर्म	-9.98904
▁रहनेछ	-9.99015
सुन	-9.99157
▁मुक्त	-9.99533
▁मारिन	-9.9972
▁खुवा	-9.99739
रब्बी	-9.99746
▁अचानक	-9.99746
▁अत्तर	-9.99746
▁अनादर	-9.99746
▁अभियोग	-9.99746
▁आइपुग्‍नुभयो	-9.99746
▁इमानदार	-9.99746
▁काँडा	-9.99746
▁किसिमले	-9.99746
▁गोप्य	-9.99746
▁चेताउनी	-9.99746
▁थिई	-9.99746
▁दशांश	-9.99746
▁दाबी	-9.99746
▁नियन्‍त्रण	-9.99746
▁प्रयत्‍न	-9.99746
▁बारम्बार	-9.99746
▁मग्दलिनी	-9.99746
▁मुहार	-9.99746
▁यिनलाई	-9.99746
▁यिनै	-9.99746
▁वर्तमान	-9.99746
▁सदस्यहरू	-9.99746
▁साँचा	-9.99746
▁सांसारिक	-9.99746
▁साह्रै	-9.99746
▁सित्तैँमा	-9.99746
▁हननिया	-9.99746
▁अर्ती	-9.99746
▁आरोप	-9.99746
▁इलाका	-9.99746
▁कैदमा	-9.99746
▁खेतालाहरू	-9.99746
▁गहुँ	-9.99746
▁नभन्‍नू	-9.99746
▁बुझ्दैनौ	-9.99746
▁सजिलो	-9.99746
▁सामरिया	-9.99746
▁सुधार	-9.99746
▁उभिरहेको	-9.99746
▁त्‍यहाँ	-9.99746
▁दूध	-9.99746
▁निहुर	-9.99746
▁खोसेर	-9.99746
▁चढ्नुभयो	-9.99746
▁चिह्न‍हरू	-9.99746
▁नबोल	-9.99746
▁भक्ति	-9.99746
▁सायद	-9.99746
▁सक्‍नुहुन्छ	-9.99746
▁सदोम	-9.99746
▁कन्या	-9.99747
▁पाताल	-9.99747
▁ल्याइयो	-9.99747
▁आदम	-9.99749
▁घेर	-9.99749
▁गीत	-9.9975
▁आँट	-9.99751
▁पहर	-9.99751
▁मोती	-9.99751
▁गरूँ	-9.99753
▁वासस्थान	-9.99759
▁चाहनुहुन्छ	-9.99764
▁छर्ने	-9.99765
▁आधा	-9.99766
▁भेट्टाउनुभयो	-9.99769
▁गहिराइ	-9.9977
▁सिरिया	-9.99771
▁लेऊ	-9.99779
▁बुझेनन्	-9.99795
वेद	-9.998
▁उभिनुभयो	-9.99845
▁पढेका	-9.99867
▁तिनवटा	-9.99882
▁रहनुहुन्छ	-9.99905
▁बताइदिए	-9.99937
▁आई	-9.99948
▁गरिसकेपछि	-9.99954
▁राख्‍नुभएको	-9.99955
▁ठान्‍ने	-9.99982
▁सकिन्छ	-9.99987
▁पारिएका	-10.0003
▁बोलिरहेका	-10.0004
▁फलाउँछ	-10.0008
▁खतरामा	-10.001
िरहँदा	-10.001
▁गइरहेका	-10.0019
▁नगरोस्	-10.0023
▁हटाउन	-10.0024
▁डोर्‍याउन	-10.0025
▁पठाउने	-10.0027
▁चाल	-10.0034
▁भार	-10.0035
▁उड	-10.0038
▁कुष्‍ठरोगी	-10.0042
▁धुन	-10.0043
▁खान्छन्	-10.0044
ान्‍न	-10.0051
▁पूर्णता	-10.0061
▁तिनकी	-10.0062
▁बाँधेर	-10.0064
▁मूर्तिलाई	-10.0065
▁रातो	-10.0078
▁सक्छन्	-10.0083
▁अर्कोतिर	-10.0107
▁पारेर	-10.0109
▁गराउँछ	-10.011
▁उसँग	-10.0124
▁अगमवक्‍ताद्वारा	-10.0126
▁पाएर	-10.0138
गुरुहरू	-10.0153
▁एल्डर	-10.0187
▁ठहरिन्छ	-10.0194
▁सुँगुरहरू	-10.0196
▁दिनार	-10.0197
▁शब्दहरू	-10.0211
परे	-10.0254
▁साक्षीहरू	-10.027
▁पूजाहारीहरू	-10.0292
िसकेपछि	-10.0294
▁छाड	-10.0344
ुहुनेछैन	-10.0365
▁पुग्‍न	-10.0413
▁सुन्‍नेहरू	-10.0453
▁गर्नुभए	-10.0479
▁आउनुहुने	-10.0557
▁बचाउ	-10.057
▁खोलिए	-10.0576
▁बाँच्‍न	-10.0671
▁पतिहरू	-10.0684
▁छोराछोरी	-10.0692
र्नुभएको	-10.0694
गुरु	-10.0793
▁पार्दै	-10.0812
▁हान्‍न	-10.0855
▁बलिदानहरू	-10.0857
▁कष्‍टहरू	-10.0919
▁छोड्न	-10.0968
साथै	-10.099
आपसमा	-10.099
यूहन्‍ना	-10.099
▁सट्टा	-10.0993
अब	-10.1016
▁निर्	-10.1051
▁भत्क	-10.1074
▁गोरु	-10.1086
▁पत्थर	-10.1086
▁बगैँचा	-10.1086
▁बालबालिकाहरू	-10.1086
▁अडेस	-10.1086
▁अनुकरण	-10.1086
▁आशिषित	-10.1086
▁उपहार	-10.1086
▁कैयाफा	-10.1086
▁गर्दथे	-10.1086
▁चन्द्रमा	-10.1086
▁चिच्‍च्याए	-10.1086
▁जब्दियाका	-10.1086
▁ज्‍योति	-10.1086
▁थाम	-10.1086
▁थिइनँ	-10.1086
▁दक्षिण	-10.1086
▁दिनहुँ	-10.1086
▁धारिलो	-10.1086
▁धोखा	-10.1086
▁नराम्रो	-10.1086
▁निधारमा	-10.1086
▁परिपक्‍व	-10.1086
▁प्रायः	-10.1086
▁बिर्स	-10.1086
▁बेथानिया	-10.1086
▁मूर्तिपूजक	-10.1086
▁राम्ररी	-10.1086
▁राष्‍ट्र	-10.1086
▁लौरो	-10.1086
▁विचलित	-10.1086
▁शङ्का	-10.1086
▁समर्पण	-10.1086
▁सहनशीलता	-10.1086
▁स्वस्थ	-10.1086
▁हुनुपर्दछ	-10.1086
▁दिनरात	-10.1086
▁नसकिने	-10.1086
▁पठाउँदै	-10.1086
▁मूल्यवान्	-10.1086
▁समर्थन	-10.1086
▁सिंह	-10.1086
▁हुर्क	-10.1086
▁उस्तै	-10.1086
▁योप्पा	-10.1086
▁समझदार	-10.1086
▁कपट	-10.1086
▁बाधा	-10.1086
▁सुन्दर	-10.1086
▁बिमारी	-10.1086
▁नोआ	-10.1086
▁जसै	-10.1086
▁उसो	-10.1086
▁गर्भ	-10.1086
▁पुर्‍याउने	-10.1086
▁पुकार्	-10.1086
िराखेका	-10.1086
▁दिदी	-10.1086
▁जसबाट	-10.1086
▁मासु	-10.1087
▁नआउ	-10.1087
▁तेरा	-10.1087
▁जसमा	-10.1087
▁केटी	-10.1088
▁फुकाल	-10.1088
▁छोप	-10.1088
▁चिन्छु	-10.1088
िहाल	-10.1088
▁आइपुग्यौँ	-10.1088
▁पिउँदै	-10.1088
▁चम्किलो	-10.1088
▁धोए	-10.1089
▁दसवटा	-10.1089
▁लगाइदिए	-10.1089
▁समान	-10.109
▁छायो	-10.1091
▁भेट्टाउनेछौ	-10.1092
▁जिते	-10.1092
▁दाहिनेपट्टि	-10.1092
▁बनाउनुभएको	-10.1097
▁रहेछन्	-10.1097
▁बढ्दै	-10.1098
▁देख्‍नेछन्	-10.1098
▁अनिकाल	-10.1099
▁बनाउँदै	-10.11
▁दौडे	-10.1104
▁सकियोस्	-10.1104
ंश	-10.1106
▁नपार	-10.1108
▁पर्दा	-10.1109
▁लेखः	-10.1109
▁बोल्नुभएको	-10.1112
▁आओस्	-10.1117
▁भन्दछौ	-10.1117
▁मारिए	-10.112
▁आफूकहाँ	-10.1123
▁भनिएका	-10.1123
▁बोलिरहेको	-10.1124
▁आउनुहोस्	-10.1127
▁वर्षदेखि	-10.1129
▁मात	-10.1131
▁सातौँ	-10.1131
▁चेलाहरूमध्ये	-10.1139
▁देखेनन्	-10.1139
▁सम्झे	-10.1143
▁तपाईंहरूकहाँ	-10.1144
▁छोड्ने	-10.1149
▁लेखेँ	-10.1151
▁गरिरहनुभएको	-10.1152
▁राखिदिए	-10.119
▁गर्नुभएन	-10.1191
▁जानेछु	-10.1213
▁दल	-10.1225
▁धैर्यसाथ	-10.1233
▁गर्नेछौँ	-10.1243
▁अभिलाषाहरू	-10.1257
▁विधवाहरू	-10.1264
▁लगाऊ	-10.1307
▁देखिने	-10.1332
आऊ	-10.1337
▁सोचे	-10.1374
▁देख्‍छ	-10.1412
▁कमजोरी	-10.1421
पवित्रस्थान	-10.1456
▁देखाए	-10.1488
▁चढाए	-10.1538
▁निकाल्छ	-10.1575
िरहन्छ	-10.1591
देओ	-10.1736
▁हिँड्ने	-10.1782
▁घटना	-10.1897
याए	-10.1914
▁भनियो	-10.1989
▁कल	-10.2043
▁सुँगुर	-10.2063
▁सुन्यौ	-10.2137
▁चरा	-10.2143
समेत	-10.2237
साना	-10.224
पैसा	-10.224
मालिक	-10.2242
हुँदै	-10.2242
कार्य	-10.2245
कोही	-10.2252
▁राखिदि	-10.2266
▁निम्त	-10.2316
सम्‍म	-10.2323
धिकार	-10.2329
रहित	-10.2333
शास्‍त्र	-10.2334
▁गोठाला	-10.2336
▁ग्रीक	-10.2336
▁घाउ	-10.2336
▁थपि	-10.2336
जस्‍तै	-10.2336
ढुङ्गो	-10.2336
▁अखमिरी	-10.2336
▁अत्यन्तै	-10.2336
▁अनाज्ञाकारिता	-10.2336
▁अवसर	-10.2336
▁आँधी	-10.2336
▁आइसकेको	-10.2336
▁उघार	-10.2336
▁उत्सव	-10.2336
▁उपयुक्त	-10.2336
▁उप्रान्त	-10.2336
▁कहिल्‍यै	-10.2336
▁किलिकिया	-10.2336
▁कुकुरहरू	-10.2336
▁खुल्ला	-10.2336
▁घाँटी	-10.2336
▁घोप्टो	-10.2336
▁चिट्ठा	-10.2336
▁छरपष्‍ट	-10.2336
▁जोखिममा	-10.2336
▁दाह्रा	-10.2336
▁नोक्सानी	-10.2336
▁पत्ता	-10.2336
▁फेलिक्स	-10.2336
▁बथान	-10.2336
▁बायाँ	-10.2336
▁बोलाउनुहुने	-10.2336
▁भविष्यको	-10.2336
▁भूमि	-10.2336
▁विपरीत	-10.2336
▁विभाजित	-10.2336
▁व्याख्या	-10.2336
▁सङ्केत	-10.2336
▁सङ्घर्ष	-10.2336
▁सत्कार	-10.2336
▁सम्‍पत्ति	-10.2336
▁साइप्रस	-10.2336
▁सुगन्धित	-10.2336
▁हँसिया	-10.2336
▁हप्‍ताको	-10.2336
▁हुनुहुन्‍थ्‍यो	-10.2336
▁आउनुभएका	-10.2336
▁घाम	-10.2336
▁प्रान्त	-10.2336
▁मुक्तिदाता	-10.2336
▁मुक्‍तिदाता	-10.2336
▁पक्‍का	-10.2336
▁बाध्य	-10.2336
▁त्‍यसकारण	-10.2336
▁समस्या	-10.2336
▁प्रकारको	-10.2336
▁कतिपय	-10.2336
▁पुनः	-10.2336
▁बगाल	-10.2336
▁चारैतिर	-10.2336
▁जित्छ	-10.2336
▁सामना	-10.2336
▁कमारा	-10.2336
▁ज्यान	-10.2336
▁सक्दो	-10.2336
▁नरोक	-10.2336
▁चमक	-10.2336
्थ्यौ	-10.2336
▁सवार	-10.2336
▁देह	-10.2336
▁गुमाउनेछ	-10.2336
▁गधा	-10.2336
▁आधारमा	-10.2336
हजुर	-10.2336
▁महत्त्वपूर्ण	-10.2337
▁रद्द	-10.2337
ंदै	-10.2338
▁हेरेँ	-10.2338
▁बद्	-10.2338
▁वंश	-10.2338
▁खोज्‍न	-10.2339
▁पछ्याऊ	-10.2339
▁छोड्नुभयो	-10.2339
▁तुल्याउँछ	-10.2341
▁चढाइएको	-10.2341
▁भाँच्‍नुभयो	-10.2341
▁लुकाइएको	-10.2342
▁जाँदा	-10.2343
▁छुट्ट	-10.2343
▁पर्खिरहेका	-10.2343
▁बोलाउनुभएको	-10.2345
▁महिनासम्म	-10.2346
▁सङ्गति	-10.2346
▁देखाउनेछु	-10.2346
▁देख्यौँ	-10.235
▁क्षेत्रहरूमा	-10.235
▁नगरेसम्म	-10.2351
▁लाग्दा	-10.2352
▁भइरहेका	-10.2354
▁निस्क्यो	-10.2354
▁सधैँभरि	-10.2354
▁पिलातसकहाँ	-10.2355
▁बस्यौँ	-10.2356
▁गइन्	-10.2357
▁सक्‍नुहुने	-10.2359
▁देखून्	-10.2361
▁चल्न	-10.2363
▁सामाहरू	-10.2363
▁सताउने	-10.2367
▁खसाल	-10.2369
▁गरिदिनुहोस्	-10.2374
▁जन्मेका	-10.2377
▁देख्छ	-10.2378
▁गराए	-10.2387
▁बसिरहेको	-10.2389
▁कुट	-10.2391
▁डोर्‍याइ	-10.24
▁पाउनुभयो	-10.2414
▁मोल	-10.2427
▁उचालि	-10.243
▁पुर्‍याए	-10.2439
▁पहरेदारहरू	-10.2463
इसकेपछि	-10.2474
▁रोए	-10.2495
खेल	-10.2513
इरहनुभएको	-10.26
▁भेट्टाउन	-10.2619
िरहने	-10.2833
▁पार्दछ	-10.2893
▁नखाओ	-10.2927
▁रोक्‍न	-10.3052
▁खाँद	-10.3083
अर्काको	-10.3167
▁शास्‍त्री	-10.3232
▁हाँगा	-10.3294
▁एकअर्का	-10.3295
▁पायौ	-10.3402
▁आइपर्	-10.3408
▁भेट्टाउनेछ	-10.3436
▁बसाल्	-10.353
▁बुद्धिमानी	-10.3607
▁डोर्‍या	-10.3619
क्‍क	-10.3661
तैँले	-10.3667
जहाँ	-10.367
जन्म	-10.367
दुई	-10.367
यस्तो	-10.367
एउटा	-10.367
।	-10.367
पिता	-10.367
जुन	-10.3673
जसलाई	-10.3676
▁आत्म	-10.3717
▁भइरह	-10.3737
▁मुक्‍त	-10.3744
▁श्राप	-10.3759
्‍नुभएका	-10.376
एफिसस	-10.3763
▁सल्लाह	-10.3764
▁भङ्ग	-10.3764
मध्‍ये	-10.3764
▁अगमवक्ताहरू	-10.3764
▁अञ्‍जीर	-10.3764
▁अनन्‍त	-10.3764
▁अनुभव	-10.3764
▁अन्जीर	-10.3764
▁अन्योलमा	-10.3764
▁अन्‍धकार	-10.3764
▁अविनाशी	-10.3764
▁अहङ्कारी	-10.3764
▁आँगन	-10.3764
▁आज्ञापालन	-10.3764
▁उफ्र	-10.3764
▁उल्लङ्घन	-10.3764
▁एकदमै	-10.3764
▁काँढ	-10.3764
▁कामवासना	-10.3764
▁कुरेनी	-10.3764
▁केफास	-10.3764
▁गन्धक	-10.3764
▁गम्भीर	-10.3764
▁चौथो	-10.3764
▁चौबिस	-10.3764
▁छिट्टै	-10.3764
▁जङ्गली	-10.3764
▁जुत्ता	-10.3764
▁ज्वाला	-10.3764
▁झण्डै	-10.3764
▁झनै	-10.3764
▁ठक्‍कर	-10.3764
▁दायाँ	-10.3764
▁दासत्व	-10.3764
▁निम्‍ति	-10.3764
▁पक्षपात	-10.3764
▁परिणत	-10.3764
▁पाइसकेका	-10.3764
▁प्रतिलिपिहरूमा	-10.3764
▁प्रदर्शन	-10.3764
▁फिक्री	-10.3764
▁फुट	-10.3764
▁फुल	-10.3764
▁बछेडा	-10.3764
▁बालजिबुल	-10.3764
▁बाहुली	-10.3764
▁बिजुली	-10.3764
▁बिरुवा	-10.3764
▁बैजनी	-10.3764
▁भन्‍नुपर्दा	-10.3764
▁भेटघाट	-10.3764
▁भेदभाव	-10.3764
▁मरुभूमि	-10.3764
▁मुद्दा	-10.3764
▁मूर्तिपूजा	-10.3764
▁मेहनत	-10.3764
▁यद्यपि	-10.3764
▁वास्तविक	-10.3764
▁व्‍यक्‍ति	-10.3764
▁संस्करण	-10.3764
▁सचेत	-10.3764
▁सदुकीहरू	-10.3764
▁सदैव	-10.3764
▁सहभागिता	-10.3764
▁सुम्पिदिनेछन्	-10.3764
▁स्वतन्त्र	-10.3764
▁स्वाभाविक	-10.3764
▁स्‍वर्ग	-10.3764
▁स्‍वीकार	-10.3764
▁हिउँद	-10.3764
जादुगर	-10.3764
▁कहलाइन	-10.3764
▁धूर्त	-10.3764
▁बेथसेदा	-10.3764
▁भन्‍दै	-10.3764
▁यरीहो	-10.3764
▁यिनको	-10.3764
▁यिनले	-10.3764
▁सराप	-10.3764
▁अकिला	-10.3764
▁अग्‍नि	-10.3764
▁इस्करियोत	-10.3764
▁उपाय	-10.3764
▁नभई	-10.3764
▁पचास	-10.3764
▁छाया	-10.3764
▁सोझो	-10.3764
▁अर्की	-10.3764
▁चौध	-10.3764
▁हेरोदियास	-10.3764
▁धुलो	-10.3764
▁पाउदान	-10.3764
▁सुतिरहेको	-10.3764
▁क्रम	-10.3764
▁चाख्‍न	-10.3764
▁जिम्मा	-10.3764
▁साठी	-10.3764
▁हाँस	-10.3764
▁जोसिलो	-10.3764
▁पागल	-10.3764
▁मान्छे	-10.3764
▁बडो	-10.3764
▁करिब	-10.3764
▁भड्	-10.3764
▁उम्र	-10.3764
▁गनियो	-10.3764
▁जसमाथि	-10.3764
▁देला	-10.3764
▁उसकी	-10.3765
▁कृपालु	-10.3765
सम्‍झ	-10.3765
छिटो	-10.3765
▁तितो	-10.3765
▁किटाइ	-10.3765
▁हावा	-10.3765
भन्‍दा	-10.3765
▁उनकी	-10.3765
▁अगिबाटै	-10.3765
्थिन्	-10.3765
▁फलाम	-10.3765
▁बिताए	-10.3766
▁हप्काउनुभयो	-10.3766
▁कुराकानी	-10.3766
▁पठाइदिए	-10.3766
▁हटाए	-10.3766
▁अनु	-10.3767
▁देख्‍नेछैनौ	-10.3767
▁रहून्	-10.3767
▁यता	-10.3767
▁ताप	-10.3767
▁तोक	-10.3768
▁केटा	-10.3768
▁नगरीकन	-10.3769
▁लगाइएका	-10.3769
▁छाने	-10.3769
▁तिर्नुपर्ने	-10.3769
▁उखेल	-10.3769
▁पठाइएको	-10.377
▁बनाइएका	-10.377
▁हटाइएको	-10.3771
▁चिन्दिनँ	-10.3772
▁हिँडिरहनुभएको	-10.3772
▁पाऊन्	-10.3774
▁काठ	-10.3775
▁आउनुहुँदा	-10.3775
▁दुर्बलता	-10.3776
▁चाहनुभयो	-10.3778
▁सिकाउनुहुन्छ	-10.3778
▁मार्नेछन्	-10.3779
▁सक्‍नुभएको	-10.3781
▁भेट्टाएनन्	-10.3782
▁भाषाहरूमा	-10.3782
▁बनाउनेछु	-10.3783
▁लाग्दैन	-10.3783
▁त्यागेका	-10.3784
▁सक्दिनँ	-10.3784
▁भोग्‍नुभयो	-10.3786
▁भन्यौँ	-10.3786
▁ल्याउनुभयो	-10.3786
▁बचाउनुभयो	-10.3789
▁रहनुभयो	-10.3791
▁अलि	-10.3794
▁मारिनेछ	-10.381
▁देखाउँछ	-10.3817
र्जन	-10.3832
▁पितापुर्खा	-10.3857
▁पछ्याइरहे	-10.3914
▁राख्छौ	-10.3982
▁लगिनेछ	-10.4114
▁रहन्‍छ	-10.413
▁आइपर्नेछ	-10.4153
अर्कामा	-10.4158
ाईकन	-10.419
▁सेना	-10.4223
▁हिँड्दै	-10.4365
इयोस्	-10.4431
▁पर्नेछैन	-10.4613
▁पछ्याओ	-10.4704
▁लगिए	-10.4753
▁निकाल्दछ	-10.4828
▁पछ्याउन	-10.4835
▁सिकाउँ	-10.4859
▁रुने	-10.491
▁शब्द	-10.5036
▁स्वर	-10.5253
हुँदा	-10.5278
▁पुर्‍या	-10.5285
हरेक	-10.5336
हाम्रा	-10.5337
भाइहरू	-10.5338
▁विषय	-10.534
जसको	-10.535
बुझ	-10.54
▁शान्त	-10.541
▁दुर्बल	-10.5417
▁रहेछ	-10.542
▁झ्यालखान	-10.5428
▁नछो	-10.543
▁आँशु	-10.5431
▁न्‍याय	-10.5431
▁सदाकाल	-10.5431
साधारण	-10.5431
▁अक्षर	-10.5431
▁अग्रिपास	-10.5431
▁अदालत	-10.5431
▁अपोल्लोस	-10.5431
▁अभ्यास	-10.5431
▁आउँदछ	-10.5431
▁इच्‍छा	-10.5431
▁इसारा	-10.5431
▁ईश्‍वरभक्त	-10.5431
▁उपयोगी	-10.5431
▁कन्‍या	-10.5431
▁किलोमिटर	-10.5431
▁कोरिन्थमा	-10.5431
▁क्रेट	-10.5431
▁खास्टो	-10.5431
▁खैलाबैला	-10.5431
▁गिरफ्तार	-10.5431
▁घिनलाग्दा	-10.5431
▁घुम्टो	-10.5431
▁चुपचाप	-10.5431
▁झट्टै	-10.5431
▁ठूलो	-10.5431
▁ढुङ्गेनी	-10.5431
▁तत्पर	-10.5431
▁तृप्‍त	-10.5431
▁त्रोआस	-10.5431
▁थेसलोनिके	-10.5431
▁दुर्व्यवहार	-10.5431
▁दुलही	-10.5431
▁दुष्‍टात्मा	-10.5431
▁दौरा	-10.5431
▁नथानेल	-10.5431
▁नलाग्‍ने	-10.5431
▁निरुत्साह	-10.5431
▁पक्षमा	-10.5431
▁पूरा	-10.5431
▁प्राकृतिक	-10.5431
▁फारो	-10.5431
▁बच्‍चा	-10.5431
▁बछेडो	-10.5431
▁बाँझी	-10.5431
▁बालबच्‍चा	-10.5431
▁बालिका	-10.5431
▁बेथलेहेम	-10.5431
▁भनिसक्‍नुभएपछि	-10.5431
▁भेट्टाउँछ	-10.5431
▁मध्यस्तकर्ता	-10.5431
▁मरणशील	-10.5431
▁रुवाबासी	-10.5431
▁रूपैयाँ	-10.5431
▁लाउडिकिया	-10.5431
▁लुस्‍त्रा	-10.5431
▁वरपरका	-10.5431
▁विरूद्ध	-10.5431
▁वीणा	-10.5431
▁वैभव	-10.5431
▁शान्‍ति	-10.5431
▁शेखी	-10.5431
▁सङ्कष्‍ट	-10.5431
▁सरोकार	-10.5431
▁साझेदार	-10.5431
▁सावधान	-10.5431
▁सीदोन	-10.5431
▁सेनापति	-10.5431
▁स्मरण	-10.5431
▁हकार्नुभयो	-10.5431
▁हिस्सा	-10.5431
▁हेतुले	-10.5431
▁अनुचित	-10.5431
▁आदरणीय	-10.5431
▁इनार	-10.5431
▁खन्याए	-10.5431
▁छोटो	-10.5431
▁ठगाहा	-10.5431
▁ढाक्यो	-10.5431
▁ढुकुर	-10.5431
▁नमान्‍ने	-10.5431
▁नसोच	-10.5431
▁नाङ्गो	-10.5431
▁न्यानो	-10.5431
▁ब्युँझ	-10.5431
▁मुढा	-10.5431
▁लुकाइएका	-10.5431
▁सपनामा	-10.5431
▁अभाव	-10.5431
▁एघार	-10.5431
▁निगालो	-10.5431
▁निगाह	-10.5431
▁निवेदन	-10.5431
▁ल्याउँदै	-10.5431
▁आचरण	-10.5431
▁पछिल्लो	-10.5431
▁पठाऊ	-10.5431
▁यातना	-10.5431
▁बोअ	-10.5431
▁मृत्‍यु	-10.5431
▁विदेशी	-10.5431
▁सकिन्थ्यो	-10.5431
▁हकदार	-10.5431
▁रीतिले	-10.5431
▁हुनुभएका	-10.5431
▁लुटे	-10.5431
▁दैनिक	-10.5431
▁पक्राउ	-10.5431
▁बहाना	-10.5431
▁माया	-10.5431
ुपर्थ्यो	-10.5431
▁गुमाउँछ	-10.5431
▁जुवा	-10.5431
▁नासरी	-10.5431
▁गर्लान्	-10.5431
▁चरणमा	-10.5431
▁उठ्नुभयो	-10.5431
▁मनिसहरू	-10.5431
▁दिलाउन	-10.5431
▁प्रसव	-10.5431
▁साटो	-10.5431
▁बढ्ता	-10.5431
▁हिड	-10.5431
▁भोलिपल्ट	-10.5431
▁खुला	-10.5431
▁उम्कन	-10.5431
▁बरू	-10.5431
▁सल्लाहकार	-10.5431
▁आउनुभन्दा	-10.5431
▁पासो	-10.5431
ब्बा	-10.5432
▁मगनी	-10.5432
▁दयालु	-10.5432
▁उपस्थितिको	-10.5432
▁नुनिलो	-10.5432
▁सुकेको	-10.5432
▁महत्त्‍वपूर्ण	-10.5432
▁तितर	-10.5432
▁त्यस्ता	-10.5433
▁उसबाट	-10.5433
▁सताइएका	-10.5433
▁देख्दैनौ	-10.5434
▁सुते	-10.5434
पिठो	-10.5434
▁छरिएका	-10.5434
▁अन्याय	-10.5435
▁काटिदिए	-10.5435
▁छोयो	-10.5435
▁छरिएको	-10.5436
▁आकास	-10.5437
▁अङ्गुर	-10.5437
▁प्रस्थान	-10.5438
▁नुन	-10.5438
स्‍नेह	-10.5438
▁नजान	-10.544
▁चुन्‍नुभयो	-10.5441
▁पठाउनेछु	-10.5442
▁खेद	-10.5443
▁लेओ	-10.5444
▁बलिया	-10.5447
▁उक्ल	-10.5452
▁धपाउ	-10.5468
सकेपछि	-10.55
खुस	-10.5504
▁छोए	-10.552
▁पस्छ	-10.5617
ेछैनौँ	-10.5638
▁बाहिरकाहरू	-10.5648
▁चाहन्‍	-10.5682
▁सिकाइरह	-10.5714
▁देखिए	-10.5791
नासरतका	-10.604
अर्कासँग	-10.608
ानो	-10.6084
▁निस्कन्छ	-10.6307
▁भाँडा	-10.6995
▁बोलिरह	-10.7039
▁कुण्ड	-10.7153
पवित्र	-10.7292
ङ्गा	-10.7302
छोरी	-10.7327
निश्‍चय	-10.7334
तेरो	-10.7335
टुक्रा	-10.7335
यरूशलेम	-10.7335
सिद्ध	-10.7336
इस्राएलका	-10.7336
छोरा	-10.7336
▁छुट्	-10.742
पाखण्डी	-10.7429
ीकन	-10.7429
▁महत्त्‍व	-10.7429
▁महत्त्व	-10.7429
▁विनम्र	-10.7431
▁सर्व	-10.7431
▁एथेन्स	-10.7431
▁झाडी	-10.7431
▁डोरी	-10.7431
▁पश्‍चिम	-10.7431
▁फिलिप्पी	-10.7431
▁महासङ्कष्‍ट	-10.7431
इसक्‍नुभएपछि	-10.7431
टाक्री	-10.7431
▁अग्लो	-10.7431
▁अतिथि	-10.7431
▁अदृश्य	-10.7431
▁अन्जान	-10.7431
▁अरिस्तार्खस	-10.7431
▁अल्छी	-10.7431
▁अविवाहित	-10.7431
▁आइकोनियम	-10.7431
▁आशीर्वाद	-10.7431
▁इन्‍कार	-10.7431
▁कम्मरमा	-10.7431
▁काँसा	-10.7431
▁क्रन्दन	-10.7431
▁खाल्डो	-10.7431
▁खुलमखुला	-10.7431
▁गर्नुपर्दछ	-10.7431
▁गलातिया	-10.7431
▁गाह्रो	-10.7431
▁गौरव	-10.7431
▁चप्पल	-10.7431
▁छैठौँ	-10.7431
▁जन्तुहरू	-10.7431
▁जिउँदो	-10.7431
▁जिम्मेवार	-10.7431
▁ज्‍वरो	-10.7431
▁झोला	-10.7431
▁टार्सस	-10.7431
▁तत्कालै	-10.7431
▁तत्त्वहरू	-10.7431
▁तिम्री	-10.7431
▁तुखिकस	-10.7431
▁त्‍यही	-10.7431
▁थैली	-10.7431
▁दिउँसो	-10.7431
▁देब्रे	-10.7431
▁नबोक	-10.7431
▁निकोदेमस	-10.7431
▁निर्वासन	-10.7431
▁निष्कपट	-10.7431
▁निष्फल	-10.7431
▁निस्‍केर	-10.7431
▁परिस्थिति	-10.7431
▁पियक्‍कड	-10.7431
▁पुनरुत्‍थान	-10.7431
▁प्रतिफल	-10.7431
▁प्रतिरूप	-10.7431
▁प्रिस्किला	-10.7431
▁फोहोर	-10.7431
▁फ्याँक्‍न	-10.7431
▁बासिन्दाहरू	-10.7431
▁बिच्छी	-10.7431
▁बेह्रे	-10.7431
▁भलादमी	-10.7431
▁भाँडो	-10.7431
▁मत्ताथियास	-10.7431
▁मत्ती	-10.7431
▁मनुष्यता	-10.7431
▁मरिसकेका	-10.7431
▁मरेतुल्य	-10.7431
▁मुक्‍का	-10.7431
▁मैदान	-10.7431
▁मोहोर	-10.7431
▁यासोन	-10.7431
▁यिशै	-10.7431
▁राजकुमार	-10.7431
▁लज्‍जित	-10.7431
▁लाजमर्दो	-10.7431
▁लोग्‍ने	-10.7431
▁वञ्‍चित	-10.7431
▁विवरण	-10.7431
▁विश्‍वासयोग्‍य	-10.7431
▁शक्तिशाली	-10.7431
▁शहरमा	-10.7431
▁शिशुहरू	-10.7431
▁सल्मोन	-10.7431
▁सामेल	-10.7431
▁सिफारिस	-10.7431
▁स्वयम्	-10.7431
▁स्वाद	-10.7431
▁स्वार्थ	-10.7431
▁हप्काए	-10.7431
▁हाबिल	-10.7431
▁हाम्री	-10.7431
▁हाम्रै	-10.7431
▁हिर्काउने	-10.7431
▁हिर्काए	-10.7431
अलेक्जेन्डर	-10.7431
जस्‍तो	-10.7431
▁आँसु	-10.7431
▁खन्याउनेछ	-10.7431
▁गइहाल्	-10.7431
▁घुम	-10.7431
▁च्याते	-10.7431
▁डायना	-10.7431
▁तवरले	-10.7431
▁दह्रो	-10.7431
▁दाँत	-10.7431
▁नचोर	-10.7431
▁नभेट्टा	-10.7431
▁प्रचण्ड	-10.7431
▁प्रतिवेदन	-10.7431
▁ल्‍याए	-10.7431
▁एकान्त	-10.7431
▁चालकहरूले	-10.7431
▁चिन्तित	-10.7431
▁तातो	-10.7431
▁सिदोन	-10.7431
▁अन्‍त	-10.7431
▁लैजाओ	-10.7431
▁ल्याऊ	-10.7431
▁भक्‍ति	-10.7431
▁धैर्यवान्	-10.7431
▁नसकून्	-10.7431
▁भोकाएको	-10.7431
▁साबित	-10.7431
ण्‍ड	-10.7431
▁दिशाबाट	-10.7431
▁बाढी	-10.7431
▁वस्तु	-10.7431
▁सकिँदैन	-10.7431
▁कलमी	-10.7431
▁च्याति	-10.7431
▁गुँड	-10.7431
▁सासू	-10.7431
▁पाइला	-10.7431
▁मृतकबाट	-10.7431
▁गायस	-10.7431
▁ढिला	-10.7431
▁फलाए	-10.7431
▁बनायो	-10.7432
▁ओठ	-10.7432
वक्ता	-10.7432
▁दिमाग	-10.7432
▁नधो	-10.7432
▁दीन	-10.7432
▁कोमल	-10.7432
▁ठग	-10.7433
▁बहकाउने	-10.7434
▁बालेर	-10.7434
▁बेरमा	-10.7435
सामने	-10.7437
▁आत्मसंयम	-10.7444
▁हालिदि	-10.7453
▁भुल	-10.7455
्याइँ	-10.7458
▁बगाइ	-10.747
▁सताइ	-10.7495
▁चुक	-10.7585
▁खोसिनेछ	-10.7639
▁रोइरहेक	-10.7942
्रिय	-10.7962
ुभएअनुसार	-10.8096
सम्बन्धी	-10.8345
▁दिइरह	-10.8824
ुन्जेल	-10.8876
▁बोल्नुहुने	-10.8967
▁भनिसके	-10.9284
अर्काप्रति	-10.9306
▁पर्खिरह	-10.9358
▁गइरहे	-10.9683
दाजुभाइ	-10.9834
हत्या	-10.9835
आमेन	-10.9835
होसियार	-10.9835
व्यवस्था	-10.9835
अब्राहाम	-10.9835
शैतान	-10.9836
▁खतरा	-10.9836
ख्रीष्‍ट	-10.9836
ढुङ्गा	-10.9836
पश्‍चात्ताप	-10.9836
बप्‍तिस्मा	-10.9836
अहिले	-10.9837
वचन	-10.9837
कुनै	-10.9837
▁टाढ	-10.9876
▁बताइदि	-10.9889
▁नहुन	-10.9899
▁उठ्नु	-10.99
ुञ्‍जेलसम्म	-10.9908
▁सङ्गत	-10.9909
▁गहिरा	-10.9924
▁विश्‍व	-10.9927
ुष्‍ट	-10.9928
प्रत्यक्ष	-10.9931
▁आफन्त	-10.9931
▁झुन्ड्याउन	-10.9931
▁थुपार	-10.9931
▁मन्‍दिर	-10.9931
इलोई	-10.9931
उञ्‍जेलसम्म	-10.9931
टिप्पणी	-10.9931
तिलिपिहरूले	-10.9931
निर्धारण	-10.9931
पुनरुथान	-10.9931
पोलिस	-10.9931
भविष्यवाणी	-10.9931
वितर्क	-10.9931
विषालु	-10.9931
स्वीकृत	-10.9931
हल्लेलूयाह	-10.9931
▁अग्रिप्पा	-10.9931
▁अज्ञानता	-10.9931
▁अठोट	-10.9931
▁अनुपस्थित	-10.9931
▁अपोलोस	-10.9931
▁अम्मीनादाब	-10.9931
▁अरिमाथिया	-10.9931
▁अल्फयसका	-10.9931
▁अवधि	-10.9931
▁अवहेलना	-10.9931
▁आँधीबेहरी	-10.9931
▁आइसकेका	-10.9931
▁आक्रमण	-10.9931
▁इच्छुक	-10.9931
▁इपाफ्रास	-10.9931
▁उखान	-10.9931
▁उत्सुकतासाथ	-10.9931
▁उदारताको	-10.9931
▁एल्याकीम	-10.9931
▁ओबेद	-10.9931
▁ओमेगा	-10.9931
▁करुणा	-10.9931
▁क्षति	-10.9931
▁खरानी	-10.9931
▁गमोरा	-10.9931
▁गर्भधारण	-10.9931
▁गल्लीहरूमा	-10.9931
▁गालियो	-10.9931
▁गुणात्मक	-10.9931
▁घस्रने	-10.9931
▁घिसार्दै	-10.9931
▁छरपस्ट	-10.9931
▁जनगणना	-10.9931
▁जबरजस्ती	-10.9931
▁जरुरी	-10.9931
▁जाँतो	-10.9931
▁जुनसुकै	-10.9931
▁ज्यादै	-10.9931
▁डर्बी	-10.9931
▁डुबे	-10.9931
▁थप्‍न	-10.9931
▁थुने	-10.9931
▁दफनको	-10.9931
▁दुःखकष्‍ट	-10.9931
▁दृष्‍टान्‍त	-10.9931
▁देवी	-10.9931
▁धर्मपुत्र	-10.9931
▁नहशोन	-10.9931
▁नाङ्गै	-10.9931
▁निद्रामा	-10.9931
▁निमन्‍त्रणा	-10.9931
▁नियन्‍त्रित	-10.9931
▁निसन्तान	-10.9931
▁पखेटा	-10.9931
▁पठाउँछु	-10.9931
▁परिणामस्वरूप	-10.9931
▁पाम्फिलिया	-10.9931
▁पुनर्स्थापना	-10.9931
▁प्रकृति	-10.9931
▁प्रतिष्‍ठा	-10.9931
▁प्रतिष्‍ठित	-10.9931
▁प्रभुत्व	-10.9931
▁प्रशस्‍त	-10.9931
▁प्रायश्‍चित्त	-10.9931
▁फाट	-10.9931
▁फारेस	-10.9931
▁फाल्न	-10.9931
▁फित्ता	-10.9931
▁फ्याँकिदेऊ	-10.9931
▁बन्दरगाह	-10.9931
▁बाँसुरी	-10.9931
▁बारथोलोमाइ	-10.9931
▁बासस्‍थान	-10.9931
▁बेकम्मा	-10.9931
▁बोलिसक्‍नुभएपछि	-10.9931
▁ब्वाँसाहरू	-10.9931
▁भयङ्कर	-10.9931
▁भाडामा	-10.9931
▁भूतात्‍मा	-10.9931
▁भेट्टायो	-10.9931
▁भौतिक	-10.9931
▁मछुवाहरू	-10.9931
▁मत्तात	-10.9931
▁मनुष्यत्व	-10.9931
▁मूर्र	-10.9931
▁यरुबाबेल	-10.9931
▁यहोशू	-10.9931
▁राजकीय	-10.9931
▁राज्यपालको	-10.9931
▁रित्तो	-10.9931
▁लङ्गडो	-10.9931
▁लम्पसार	-10.9931
▁वंशावली	-10.9931
▁वर्णन	-10.9931
▁विश्‍वसनीय	-10.9931
▁व्याकुल	-10.9931
▁व्‍यभिचार	-10.9931
▁व्‍यवस्था	-10.9931
▁शालतिएल	-10.9931
▁शिमियोन	-10.9931
▁श्रीमती	-10.9931
▁षड्यन्‍त्र	-10.9931
▁संख्यामा	-10.9931
▁सडकहरूमा	-10.9931
▁सत्तरी	-10.9931
▁सम्बोधन	-10.9931
▁साँढे	-10.9931
▁साङ्लाले	-10.9931
▁साट्नेहरू	-10.9931
▁सामर्थ्य	-10.9931
▁सार्वजनिक	-10.9931
▁सिङ्गमरमर	-10.9931
▁सित्तैँक	-10.9931
▁सुटुक्‍क	-10.9931
▁सुबास्‍ना	-10.9931
▁सुहाउँदो	-10.9931
▁सोधपुछ	-10.9931
▁स्वेच्छा	-10.9931
▁हनोक	-10.9931
▁हुनैपर्छ	-10.9931
▁हेस्रोन	-10.9931
▁इथियोपियालीले	-10.9931
▁उल्लेख	-10.9931
▁घोर	-10.9931
▁छानिएका	-10.9931
▁छैटौँ	-10.9931
▁डढे	-10.9931
▁निसासिदि	-10.9931
▁पछ्याउँछन्	-10.9931
▁पुष्‍टि	-10.9931
▁बित्तिकै	-10.9931
▁भोकाउनुभएको	-10.9931
▁मनाही	-10.9931
▁मर्दैनन्	-10.9931
▁यिनमा	-10.9931
▁सीनै	-10.9931
▁सुम्‍प	-10.9931
▁स्फटिक	-10.9931
▁उम्के	-10.9931
▁देख्‍दैन	-10.9931
▁पक्रिराख	-10.9931
▁परालको	-10.9931
▁वितरण	-10.9931
▁हुनुहन्छ	-10.9931
▁बिशप	-10.9931
चुँड	-10.9931
▁उब्ज	-10.9931
▁बुद्धिमती	-10.9931
नरोऊ	-10.9931
▁चढाउँछन्	-10.9931
▁चिन्‍नुहुन्छ	-10.9931
▁चुक्ता	-10.9931
▁भङ्गेरा	-10.9931
▁मिटर	-10.9931
▁टिक्‍न	-10.9931
▁हन्‍नास	-10.9931
▁तीतसको	-10.9931
▁नभईकन	-10.9931
▁भाकल	-10.9931
▁मिल्नेछ	-10.9931
▁खन्याइ	-10.9931
▁छान्‍नुभयो	-10.9931
▁विधि	-10.9931
▁सुतिरहेका	-10.9931
▁सुरुवात	-10.9931
▁होसियारीसाथ	-10.9931
▁साझा	-10.9931
अल्प	-10.9931
▁अमिलो	-10.9931
▁परिषद्‍मा	-10.9931
▁स्थानीय	-10.9931
▁नक्‍कल	-10.9931
▁बग्‍ने	-10.9931
▁गाउनेछु	-10.9931
▁असिना	-10.9931
▁विनम्रतामा	-10.9931
▁निन्‍द	-10.9931
▁साधन	-10.9931
▁दिइनेछैन	-10.9931
▁हठी	-10.9931
▁चोप	-10.9931
▁सताउँछ	-10.9931
▁पलाउँछ	-10.9931
▁मनाउँछु	-10.9931
▁पाऊँ	-10.9931
▁लेख्छु	-10.9931
▁व्यक्‍तिगत	-10.9931
▁अत्या	-10.9931
▁चिसो	-10.9931
▁तालको	-10.9931
▁सजग	-10.9931
▁अविश्‍वासमा	-10.9931
▁अजान	-10.9931
▁बेरपछि	-10.9931
▁लुला	-10.9931
▁जुटा	-10.9932
▁दलान	-10.9932
▁विलास	-10.9932
याबास	-10.9932
▁चाहँदैनौ	-10.9933
▁ढाके	-10.9933
▁ढाक्‍न	-10.9933
खुवाउने	-10.9933
▁कराइरहे	-10.9933
▁फैलाए	-10.9933
▁पाकिसके	-10.9934
लगायत	-10.9937
▁पुर्‍याउँ	-10.9941
▁हल्लि	-10.9945
प्रलय	-10.995
ालुवा	-10.9952
▁पोखि	-10.9959
▁हातहतियार	-11.0115
▁चुन्‍नुभए	-11.0171
▁निकालिदि	-11.0182
कुण्डमा	-11.0306
▁अड्	-11.0308
चाहने	-11.0427
हिँड्छौँ	-11.0967
इरहनुहुँदा	-11.1002
▁पार्नुभए	-11.1198
स्वीकारयोग्य	-11.1217
▁संयम	-11.1313
▁तुल्याउनुहुने	-11.1574
▁पहरेदार	-11.2895
▁कुष्‍ठरोग	-11.3015
▁पक्षाघात	-11.3105
बुबा	-11.3166
दृष्‍टि	-11.3168
पल्ट	-11.3169
वास्तवमा	-11.3169
सातवटा	-11.317
राज्य	-11.317
अर्थात्	-11.317
आफ्नै	-11.317
▁भुइँ	-11.317
प्रेरित	-11.3171
▁व्यक्त	-11.3243
▁हप्काउ	-11.326
▁हिंसा	-11.3264
अल्फा	-11.3264
कलङ्क	-11.3264
कृपया	-11.3264
गलगथा	-11.3264
थिआटीरा	-11.3264
मार्फत	-11.3264
यन्‍त्र	-11.3264
यालिस	-11.3264
लेक्जेन्ड्रियाक	-11.3264
शिक्षित	-11.3264
सार्डिस	-11.3264
ैपिच्छे	-11.3264
▁अँगालो	-11.3264
▁अटुट	-11.3264
▁अत्यधिक	-11.3264
▁अनभिज्ञ	-11.3264
▁अन्तर्दृष्‍टि	-11.3264
▁अन्‍द्रियास	-11.3264
▁अपरिचित	-11.3264
▁अपरिवर्तनशील	-11.3264
▁अप्रसन्‍न	-11.3264
▁अभिमानी	-11.3264
▁अमरत्व	-11.3264
▁अलमलमा	-11.3264
▁असङ्ख्य	-11.3264
▁अस्थिर	-11.3264
▁अस्वीकार	-11.3264
▁आइनपरोस्	-11.3264
▁आफ्‍नै	-11.3264
▁आलङ्कारिक	-11.3264
▁इटाली	-11.3264
▁इन्द्रेणी	-11.3264
▁इपाफ्रोडिटस	-11.3264
▁उघ्रिएको	-11.3264
▁उजुरी	-11.3264
▁उत्सुक	-11.3264
▁उत्‍पन्‍न	-11.3264
▁उद्देश्‍य	-11.3264
▁उनान्सय	-11.3264
▁उपलब्ध	-11.3264
▁उमार्नेहरू	-11.3264
▁एक्‍कासि	-11.3264
▁कम्पसाथ	-11.3264
▁कर्फनहुममा	-11.3264
▁कसिङ्गर	-11.3264
▁कारागारमा	-11.3264
▁किल्लाभित्र	-11.3264
▁क्रियाकलाप	-11.3264
▁क्षणिक	-11.3264
▁क्षमता	-11.3264
▁खतरनाक	-11.3264
▁गनेसरेत	-11.3264
▁गल्लीमा	-11.3264
▁गाग्रो	-11.3264
▁गिज्याए	-11.3264
▁गुटबन्दी	-11.3264
▁घातक	-11.3264
▁घोडचढी	-11.3264
▁घोडसवार	-11.3264
▁चकटी	-11.3264
▁चट्याङ	-11.3264
▁चराचुरुङ्गी	-11.3264
▁चर्मकार	-11.3264
▁चहकिलो	-11.3264
▁चाँडो	-11.3264
▁चिच्याउँदै	-11.3264
▁छाडिदिनुभयो	-11.3264
▁छुटाएर	-11.3264
▁छुट्कारा	-11.3264
▁छोटकरीमा	-11.3264
▁जताततै	-11.3264
▁जरूरी	-11.3264
▁झाङहरू	-11.3264
▁झारे	-11.3264
▁झूट	-11.3264
▁टिप्‍णीबारे	-11.3264
▁ठिँगुर	-11.3264
▁डढायो	-11.3264
▁डराउँथे	-11.3264
▁डिकनहरू	-11.3264
▁डेकापोलिस	-11.3264
▁डेमास	-11.3264
▁डेमेत्रियस	-11.3264
▁ढुकुटीमा	-11.3264
▁तुल्याउँदछ	-11.3264
▁तृष्णा	-11.3264
▁त्यतै	-11.3264
▁दक्षता	-11.3264
▁दन्त्य	-11.3264
▁दर्ता	-11.3264
▁दह्रिलो	-11.3264
▁दागरहित	-11.3264
▁दिदुमस	-11.3264
▁दियाबलस	-11.3264
▁दोब्बर	-11.3264
▁दोहोर	-11.3264
▁धरहरा	-11.3264
▁धुपौर	-11.3264
▁धुरुधुरु	-11.3264
▁नदेऊ	-11.3264
▁नपुर्‍याउने	-11.3264
▁नफलाउने	-11.3264
▁नाथ्रीबाट	-11.3264
▁निद्राबाट	-11.3264
▁निनवेका	-11.3264
▁निर्बुद्धि	-11.3264
▁पट्टी	-11.3264
▁परिचित	-11.3264
▁परीक्षित	-11.3264
▁पवित्रस्‍थान	-11.3264
▁पार्थिव	-11.3264
▁पुच्छर	-11.3264
▁पुनर्निर्माण	-11.3264
▁पेन्तिकोस	-11.3264
▁पोन्टस	-11.3264
▁प्रकटीकरण	-11.3264
▁प्रतिलिपीहरू	-11.3264
▁प्रलोभनमा	-11.3264
▁प्रष्‍ट	-11.3264
▁प्रोत्साहन	-11.3264
▁प्रोत्साहित	-11.3264
▁फलस्वरूप	-11.3264
▁फाइदाजनक	-11.3264
▁फालिदेऊ	-11.3264
▁फालिनुभन्दा	-11.3264
▁फैसला	-11.3264
▁फ्याँकेर	-11.3264
▁फ्रिगिया	-11.3264
▁बताइदेओ	-11.3264
▁बाख्रा	-11.3264
▁बुहारी	-11.3264
▁बेथफागे	-11.3264
▁बेथानी	-11.3264
▁बेवास्ता	-11.3264
▁बोलाउँथ	-11.3264
▁भइराखेको	-11.3264
▁भक्‍तिहीनता	-11.3264
▁भन्‍नुभएजस्तै	-11.3264
▁भयानक	-11.3264
▁भागीदार	-11.3264
▁भातृ	-11.3264
▁भिक्षा	-11.3264
▁भिखारी	-11.3264
!	-12.8167
ञ	-12.8168
ङ	-12.8169
?	-12.817
“	-12.8171
फ	-12.8172
थ	-12.8173
