<pad>	0
<unk>	0
<s>	0
</s>	0
[MASK]	0
[PAD]	0
<0x00>	0
<0x01>	0
<0x02>	0
<0x03>	0
<0x04>	0
<0x05>	0
<0x06>	0
<0x07>	0
<0x08>	0
<0x09>	0
<0x0A>	0
<0x0B>	0
<0x0C>	0
<0x0D>	0
<0x0E>	0
<0x0F>	0
<0x10>	0
<0x11>	0
<0x12>	0
<0x13>	0
<0x14>	0
<0x15>	0
<0x16>	0
<0x17>	0
<0x18>	0
<0x19>	0
<0x1A>	0
<0x1B>	0
<0x1C>	0
<0x1D>	0
<0x1E>	0
<0x1F>	0
<0x20>	0
<0x21>	0
<0x22>	0
<0x23>	0
<0x24>	0
<0x25>	0
<0x26>	0
<0x27>	0
<0x28>	0
<0x29>	0
<0x2A>	0
<0x2B>	0
<0x2C>	0
<0x2D>	0
<0x2E>	0
<0x2F>	0
<0x30>	0
<0x31>	0
<0x32>	0
<0x33>	0
<0x34>	0
<0x35>	0
<0x36>	0
<0x37>	0
<0x38>	0
<0x39>	0
<0x3A>	0
<0x3B>	0
<0x3C>	0
<0x3D>	0
<0x3E>	0
<0x3F>	0
<0x40>	0
<0x41>	0
<0x42>	0
<0x43>	0
<0x44>	0
<0x45>	0
<0x46>	0
<0x47>	0
<0x48>	0
<0x49>	0
<0x4A>	0
<0x4B>	0
<0x4C>	0
<0x4D>	0
<0x4E>	0
<0x4F>	0
<0x50>	0
<0x51>	0
<0x52>	0
<0x53>	0
<0x54>	0
<0x55>	0
<0x56>	0
<0x57>	0
<0x58>	0
<0x59>	0
<0x5A>	0
<0x5B>	0
<0x5C>	0
<0x5D>	0
<0x5E>	0
<0x5F>	0
<0x60>	0
<0x61>	0
<0x62>	0
<0x63>	0
<0x64>	0
<0x65>	0
<0x66>	0
<0x67>	0
<0x68>	0
<0x69>	0
<0x6A>	0
<0x6B>	0
<0x6C>	0
<0x6D>	0
<0x6E>	0
<0x6F>	0
<0x70>	0
<0x71>	0
<0x72>	0
<0x73>	0
<0x74>	0
<0x75>	0
<0x76>	0
<0x77>	0
<0x78>	0
<0x79>	0
<0x7A>	0
<0x7B>	0
<0x7C>	0
<0x7D>	0
<0x7E>	0
<0x7F>	0
<0x80>	0
<0x81>	0
<0x82>	0
<0x83>	0
<0x84>	0
<0x85>	0
<0x86>	0
<0x87>	0
<0x88>	0
<0x89>	0
<0x8A>	0
<0x8B>	0
<0x8C>	0
<0x8D>	0
<0x8E>	0
<0x8F>	0
<0x90>	0
<0x91>	0
<0x92>	0
<0x93>	0
<0x94>	0
<0x95>	0
<0x96>	0
<0x97>	0
<0x98>	0
<0x99>	0
<0x9A>	0
<0x9B>	0
<0x9C>	0
<0x9D>	0
<0x9E>	0
<0x9F>	0
<0xA0>	0
<0xA1>	0
<0xA2>	0
<0xA3>	0
<0xA4>	0
<0xA5>	0
<0xA6>	0
<0xA7>	0
<0xA8>	0
<0xA9>	0
<0xAA>	0
<0xAB>	0
<0xAC>	0
<0xAD>	0
<0xAE>	0
<0xAF>	0
<0xB0>	0
<0xB1>	0
<0xB2>	0
<0xB3>	0
<0xB4>	0
<0xB5>	0
<0xB6>	0
<0xB7>	0
<0xB8>	0
<0xB9>	0
<0xBA>	0
<0xBB>	0
<0xBC>	0
<0xBD>	0
<0xBE>	0
<0xBF>	0
<0xC0>	0
<0xC1>	0
<0xC2>	0
<0xC3>	0
<0xC4>	0
<0xC5>	0
<0xC6>	0
<0xC7>	0
<0xC8>	0
<0xC9>	0
<0xCA>	0
<0xCB>	0
<0xCC>	0
<0xCD>	0
<0xCE>	0
<0xCF>	0
<0xD0>	0
<0xD1>	0
<0xD2>	0
<0xD3>	0
<0xD4>	0
<0xD5>	0
<0xD6>	0
<0xD7>	0
<0xD8>	0
<0xD9>	0
<0xDA>	0
<0xDB>	0
<0xDC>	0
<0xDD>	0
<0xDE>	0
<0xDF>	0
<0xE0>	0
<0xE1>	0
<0xE2>	0
<0xE3>	0
<0xE4>	0
<0xE5>	0
<0xE6>	0
<0xE7>	0
<0xE8>	0
<0xE9>	0
<0xEA>	0
<0xEB>	0
<0xEC>	0
<0xED>	0
<0xEE>	0
<0xEF>	0
<0xF0>	0
<0xF1>	0
<0xF2>	0
<0xF3>	0
<0xF4>	0
<0xF5>	0
<0xF6>	0
<0xF7>	0
<0xF8>	0
<0xF9>	0
<0xFA>	0
<0xFB>	0
<0xFC>	0
<0xFD>	0
<0xFE>	0
<0xFF>	0
।	-2.76364
,	-3.05436
▁कली	-3.4992
▁आ	-3.63561
मी	-3.86387
▁मिनु	-3.9933
▁मेको	-4.06355
▁आन	-4.11877
▁बाक्‍त	-4.30441
▁दे	-4.35204
▁परमप्रभु	-4.39844
▁ङा	-4.47606
▁“	-4.51802
▁लोव़	-4.51885
”	-4.52337
▁हना	-4.56618
▁नु	-4.5724
▁मुर	-4.58655
▁यावे	-4.60522
▁	-4.69786
▁येसु	-4.82088
▁इन	-4.86029
▁यो	-4.87011
▁आं	-4.87807
▁पा	-4.92497
▁बाक्‍ब	-4.99451
▁थमा	-5.04342
ी	-5.05553
▁गो	-5.07334
▁रे	-5.14561
▁मार	-5.15587
▁का	-5.17013
▁नेल्‍ल	-5.2469
▁म	-5.34426
▁गेय	-5.36909
▁गे	-5.41465
▁ठेयब	-5.42282
▁पाइब	-5.43226
?	-5.44147
▁थुं	-5.54451
▁रागी	-5.58704
ा	-5.5962
▁शुश	-5.60409
शो	-5.62738
▁ख्रीस्‍त	-5.71633
▁ङोंइती	-5.71829
▁रिम्‍शो	-5.79444
▁खोदेंशो	-5.80903
▁सु	-5.88726
पुकीमी	-5.88873
▁चहिं	-5.92078
▁नोले	-5.96854
तन्‍न	-6.01943
▁मो	-6.02532
▁देंशो	-6.05851
▁पर्बम	-6.07089
▁यावेमी	-6.07377
▁पशो	-6.10941
▁बाक्‍माक्‍त	-6.12168
’	-6.12562
▁देंशा	-6.12613
▁‘	-6.12786
▁ला	-6.13576
ारदे	-6.14382
▁खिं	-6.16723
▁क्‍येङा	-6.17335
▁इं	-6.17906
▁निक्‍शी	-6.18939
▁प्रभु	-6.22397
▁तौ	-6.24053
▁मोदेंशो	-6.24122
▁पचा	-6.24141
दे	-6.25246
▁श्‍येत	-6.27819
▁सुइक्‍ब	-6.29667
▁मुल	-6.30435
न	-6.30452
चा	-6.33115
▁मारेइ	-6.33488
▁तशा	-6.36295
▁मरिम्‍शो	-6.3914
▁द	-6.42158
े	-6.42752
▁इ	-6.4343
▁पाप	-6.43465
नु	-6.47525
▁गेना	-6.50119
▁मीश	-6.50502
▁ब्रेक्‍शो	-6.54114
▁एको	-6.55328
म	-6.57585
▁नें	-6.59892
▁आस	-6.59948
▁सहर	-6.62217
▁सम्‍म	-6.62344
▁आफ	-6.62581
▁मोपा	-6.63119
▁ठीक	-6.63435
▁मुरपुकी	-6.65258
▁दुम्‍शा	-6.66616
▁नाक्‍त	-6.66833
▁बेक्‍शो	-6.67773
▁देंत	-6.6887
▁मेकेर	-6.69187
इ	-6.695
▁देंमाक्‍त	-6.72197
▁बाक्‍शो	-6.73085
पतीके	-6.74842
लो	-6.7498
▁पाइश्‍शो	-6.75364
▁नेंशा	-6.79402
▁मेकोपुकी	-6.80431
▁ममाइ	-6.80631
▁गेपुकी	-6.81394
▁सक्ति	-6.83802
▁स	-6.83942
▁सुइ	-6.84257
▁स्‍वर्ग	-6.84297
▁बाक्‍चा	-6.84525
▁रां	-6.84725
▁आल	-6.84956
▁अर्को	-6.86196
▁के	-6.86505
▁दाक्‍शो	-6.87654
▁बाक्‍नीम	-6.87861
ो	-6.87899
▁वा	-6.88238
ना	-6.88274
गो	-6.88914
स	-6.88923
▁शिशी	-6.89126
▁पावल	-6.89637
ंइ	-6.9057
▁यहूदी	-6.91704
▁आंम	-6.92233
▁लां	-6.93378
तीके	-6.93796
▁वारच	-6.95437
▁गुइ	-6.98348
▁दुम्‍ब	-6.98755
▁जचा	-6.99378
▁हिल्‍	-6.99789
▁नेल्‍लेमी	-7.00164
गे	-7.003
▁लशा	-7.00352
▁प	-7.02037
▁अरेशो	-7.02305
▁पिप	-7.02997
▁पत्रुस	-7.03452
▁पने	-7.04201
▁गेशो	-7.05382
ने	-7.0797
▁शेंसीब	-7.07991
▁नङ	-7.08088
▁रागीम	-7.08724
ोपा	-7.08946
▁मुरुमी	-7.09051
▁बाक्‍मा	-7.0942
थ	-7.09746
▁शेंब	-7.09802
▁ते	-7.11779
▁सोक्‍त	-7.11786
▁साइक्‍चा	-7.12698
▁नि	-7.12791
▁लोक्‍ब	-7.1291
▁बाक्‍तेक्‍म	-7.13228
परमप्रभु	-7.14428
▁बाक्‍कीन	-7.14746
▁मान	-7.15709
▁गेब	-7.16921
आं	-7.17189
▁पन	-7.17398
▁दोस	-7.18342
▁राज्‍य	-7.19401
क	-7.20293
▁शेंन	-7.20587
मे	-7.2303
▁छक	-7.23535
▁लेंशा	-7.24174
▁बाक्‍शा	-7.24917
▁दुम्‍शो	-7.27008
▁वोंइश	-7.27437
▁जाक्‍शा	-7.27447
▁मोप	-7.29636
▁गेचा	-7.30507
साफ	-7.30936
▁गोपुकी	-7.31111
▁बाक्‍नीनी	-7.33621
▁चढ़ेब	-7.33918
▁छेङछेङ	-7.33928
▁माल्‍ब	-7.34822
▁नेक्‍था	-7.37046
▁मिक्‍च	-7.37247
▁शेंशो	-7.39597
▁ल	-7.39664
▁लेश्‍शा	-7.40155
▁ख	-7.40713
▁अरु	-7.40855
▁ग	-7.40921
▁काथ	-7.41215
▁पतीके	-7.41855
▁खिंमी	-7.41914
ली	-7.42879
▁तुइश्‍शा	-7.43223
▁लोक्‍बपुकी	-7.43327
▁दो	-7.43686
▁सोइश्‍शो	-7.4399
▁ताइब	-7.44038
▁१	-7.44859
▁तुइक्‍ब	-7.45615
▁क्‍येट	-7.4589
मेको	-7.46538
▁माइश्‍शो	-7.46579
शा	-7.47537
▁कामी	-7.48177
ब	-7.48299
▁यरूसलेम	-7.49047
▁यूहन्‍ना	-7.4923
▁प्रोंइशा	-7.51367
▁जरमेशो	-7.51375
▁पाम्‍तेक्‍म	-7.51455
▁गेपुकीमी	-7.51518
का	-7.52485
▁दुम्‍त	-7.52552
▁मिम्‍शा	-7.53065
▁दुम्‍चा	-7.54009
▁ब	-7.54155
▁क	-7.54527
▁ना	-7.555
▁त	-7.56355
▁सां	-7.5638
एको	-7.56481
▁जाक्‍दीश्‍शा	-7.57432
▁रोइ	-7.57604
▁पशा	-7.57732
▁दा	-7.58158
▁सेल्‍शा	-7.58347
ल	-7.59501
यो	-7.59637
▁गेशा	-7.59944
▁जना	-7.59975
▁नाक्‍ती	-7.61208
▁साइ	-7.61248
▁जाक्‍शो	-7.61257
र	-7.61508
▁सरीङ	-7.63162
दा	-7.63201
पुकी	-7.64122
▁शेंसीबपुकी	-7.64632
▁पवा	-7.64767
▁पामे	-7.64841
▁सेल्‍शो	-7.65003
▁ब्र	-7.65005
▁प्रार्थना	-7.65821
▁देंतेक्‍म	-7.65865
▁वोइश्‍शो	-7.65881
▁अब्राहाम	-7.67004
▁ब्रोंइचा	-7.67864
▁आइक्‍च	-7.67916
▁ह	-7.68062
▁नोफा	-7.68337
▁ब्‍वाक्‍कु	-7.68919
▁नक	-7.69152
▁वोल	-7.69502
प्रभु	-7.69812
▁सहरमी	-7.70294
▁बाक्‍तीके	-7.70784
▁सैतान	-7.70838
▁तार	-7.71394
▁ब्रोंइशा	-7.71915
▁माल्‍शो	-7.7302
पा	-7.73051
▁पाप्‍तु	-7.73065
▁च	-7.7308
क्‍चा	-7.73267
▁अधिकार	-7.73422
जाइ	-7.75642
▁देंमेनु	-7.76126
▁फुल्‍लु	-7.76568
▁दाइश्‍शा	-7.77202
▁सुइश्‍शा	-7.77227
▁नेंमी	-7.77828
▁दाते	-7.7795
▁शोब्‍ले	-7.78496
▁समुन्‍द्र	-7.79109
▁७	-7.79411
▁पाइनीम	-7.79615
▁ग्‍य	-7.80223
▁तमी	-7.80391
▁वाइल	-7.80459
▁आफोम	-7.80562
▁काबु	-7.80683
▁येसुम	-7.8133
▁ओटा	-7.8164
▁दू	-7.81659
▁ग्रांग्रा	-7.81663
▁ननी	-7.81735
उ	-7.82463
▁ख्रुम्‍शा	-7.82802
▁लाइश्‍शा	-7.82836
▁पाइबपुकी	-7.82854
▁बाक्‍मे	-7.82943
▁बाक्‍तीक	-7.83197
▁थोव़क	-7.83535
▁जोल	-7.84187
▁ङो	-7.85828
▁कों	-7.86028
▁पुंइसीब	-7.86138
▁सोक्‍तीमी	-7.86286
सी	-7.86307
▁शोंप	-7.86339
य	-7.86901
▁से	-7.88036
▁पाइनुङ	-7.88229
▁ग्रुम्‍तीक	-7.88253
▁लाइब	-7.88654
▁देंमा	-7.88672
▁सुइक्‍तीके	-7.89152
▁सेल्‍ब	-7.89202
▁ताता	-7.89947
▁ग्‍येरपाइक्‍ब	-7.90008
▁बर्स	-7.90119
▁पाइतीनी	-7.90154
▁ब्रेश्‍शा	-7.91264
▁मदुम्‍ब	-7.92276
द	-7.9229
▁नां	-7.92352
▁ज	-7.92461
▁सेल्‍चा	-7.92582
▁जाक्‍ब	-7.93211
▁नेनीने	-7.94071
▁जोक्‍ब	-7.94482
▁मोसा	-7.95628
▁तशो	-7.95864
२	-7.95924
▁कोव़शा	-7.9644
▁मरीयम	-7.96461
▁जशा	-7.96516
▁शेंचा	-7.96586
▁गेने	-7.96631
▁सोक्‍तीम	-7.96758
▁रू	-7.9693
▁तुइक्‍नीनी	-7.97755
▁मताइब	-7.97828
▁ताइनीम	-7.98117
▁खोइल	-7.98255
▁सिमोन	-7.99074
▁शुक्‍शी	-7.99081
▁जाम्‍शा	-7.99099
▁जन्‍तु	-7.99152
▁मिम्‍शो	-7.9933
▁किक	-7.994
▁बाक्‍बा	-7.99493
▁हुश	-8
▁योव़शो	-8.01222
रिम्‍शो	-8.01488
या	-8.01703
▁माइक्‍मी	-8.01799
▁शेंदीमी	-8.01894
▁देंब	-8.01961
पाइश्‍शो	-8.02975
▁चिन्‍ड	-8.03242
▁लाक्‍शा	-8.03342
▁सुम	-8.03775
▁पाइबमी	-8.04026
▁प्रोंइब	-8.04231
▁गालील	-8.04722
▁आसीक	-8.0477
▁ब्‍वाक्‍कुम	-8.04827
से	-8.04854
▁पुंइसीशो	-8.0521
▁काइ	-8.05312
▁सा	-8.05354
▁लाप्‍चो	-8.06126
▁बेक्‍चा	-8.06466
▁पिपी	-8.07599
येसु	-8.07805
▁पवानु	-8.07858
▁पिया	-8.07877
▁माल्‍नीम	-8.08159
▁देंनुङ	-8.08591
▁रवा	-8.08969
▁गाक्‍ब	-8.09168
ग्रुम्‍थ	-8.09577
तेक्‍म	-8.10405
▁बाक्‍नुङ	-8.10705
टी	-8.11224
▁ग्रुंइ	-8.11994
▁पिलातस	-8.12135
▁सुइक्‍चा	-8.1242
▁मचाप्‍नीम	-8.12685
▁होव़प	-8.13834
▁फल	-8.14005
▁लोव़मी	-8.14037
▁चाप्‍ब	-8.1422
ला	-8.1434
माक्‍त	-8.14355
▁दुम्‍माक्‍त	-8.15352
▁सुन	-8.15357
▁रेयके	-8.15372
▁खे	-8.15415
▁बाक्‍तीनी	-8.15942
मेनु	-8.16444
थु	-8.1659
▁बोक्‍शा	-8.16921
▁जाक्‍दीम्‍मा	-8.17482
इन	-8.17734
▁दाक्‍ब	-8.17749
▁गाउं	-8.18564
▁एर	-8.18847
▁सेंदा	-8.1886
▁मुरपुकीम	-8.19405
▁मचाप्‍ब	-8.19724
▁ग्रूशा	-8.20237
पाइक्‍चा	-8.20254
▁दुम्‍नीम	-8.20989
▁पाता	-8.2102
रशो	-8.21409
▁शोव़	-8.21418
▁हिरशा	-8.21936
▁जहाज	-8.22256
मुने	-8.2226
▁दें	-8.22279
▁मसुइक्‍ब	-8.23114
▁तुइश्‍शो	-8.23664
▁हिंशा	-8.23674
▁थोक्‍शा	-8.23679
▁खुइ	-8.23696
▁नाक्‍दो	-8.23697
▁गाक्‍शा	-8.23697
▁याकूब	-8.23716
▁प्रोंइचा	-8.2378
ोदेंशो	-8.23872
▁कुर	-8.23943
▁आगाम	-8.2439
▁माइक्‍ती	-8.25298
▁ताइनीनी	-8.25399
▁ग्‍याइश्‍शा	-8.254
▁सांकछी	-8.25454
▁जाक्‍त	-8.2613
▁डोंगा	-8.26261
▁सहरम	-8.2705
▁ओंथ	-8.27209
▁ओव़चा	-8.27306
▁दुम्‍बा	-8.27444
▁ममा	-8.27879
▁हेरोद	-8.27944
ु	-8.28918
▁पाइबपुकीमी	-8.28933
▁पतीक	-8.28977
▁मपथु	-8.28989
▁ब्रेक्‍	-8.2899
▁थि	-8.29066
▁इस्राएली	-8.29114
▁गेप्‍तु	-8.29122
▁चिठी	-8.29144
िंत	-8.2917
▁आंमा	-8.29671
ुल	-8.29967
▁माइ	-8.30514
▁मबाक्‍ब	-8.3064
▁नेंता	-8.30828
▁हजार	-8.30829
▁ग्‍युरा	-8.30876
▁शेंशा	-8.30973
मा	-8.31044
▁छ	-8.31108
▁य	-8.31328
▁नम	-8.31347
ाक्‍माक्‍त	-8.31756
ेयप	-8.32483
▁कां	-8.32535
▁भाग	-8.32718
▁माल्‍नीनी	-8.32751
▁अङ	-8.32791
▁मेरे	-8.33119
मार	-8.3324
▁डांडा	-8.34271
▁नाइक्‍तीक	-8.34314
ए	-8.34358
▁लडाइ	-8.34639
▁मटीब	-8.34998
▁इच्‍	-8.35014
▁मदा	-8.35772
▁फरिसी	-8.359
मुल	-8.36276
▁सुइक्‍बपुकी	-8.36429
▁कथा	-8.36661
▁तूचा	-8.36677
▁कुल	-8.3678
क्‍त	-8.36891
ता	-8.37486
नीम	-8.37973
ुकुम	-8.38444
▁योसेफ	-8.386
▁पुंइशो	-8.38847
▁तुइक्‍नुङ	-8.39371
नी	-8.39415
▁नेनीन	-8.40701
▁बोल	-8.40858
▁यहूदीया	-8.40905
▁तचा	-8.41343
▁यहूदा	-8.41449
▁लचा	-8.41783
िचा	-8.41849
िश	-8.42493
▁मेक	-8.4267
▁जशो	-8.43739
‍माक्‍त	-8.44175
▁मपाइब	-8.44249
▁जात	-8.44451
▁बाक्‍म	-8.44661
▁प्रोंइ	-8.44697
▁ओव़शा	-8.44903
▁बाक्‍मेनु	-8.44951
तीक	-8.46056
▁यूहन्‍नामी	-8.46334
▁आगा	-8.4668
▁शेंतीक	-8.46779
▁वोइश्‍शा	-8.47039
▁ङोइश्‍शा	-8.47044
▁दि	-8.4708
▁जाक्‍मेनु	-8.47117
▁दुम्‍ती	-8.47132
▁दुम्‍तीनी	-8.47136
▁मूर्ति	-8.47145
▁में	-8.47346
▁देंचा	-8.47481
श्‍शो	-8.47606
▁पतीकेमी	-8.49043
मुर	-8.49132
▁ख्रुइश्‍शो	-8.49171
▁पुंइसाक्‍व	-8.49268
▁बाप्‍शा	-8.49276
▁ग्रुम्‍शा	-8.49313
▁दीसा	-8.49328
▁बाक्‍को	-8.49364
▁कोव़ब	-8.4974
▁पुंइसीनीम	-8.49742
▁बाक्‍नीमी	-8.49996
▁पथ	-8.50089
ाफ	-8.50157
▁तवा	-8.5044
▁बा	-8.51414
▁पाठा	-8.51519
▁तेल्‍लेम	-8.5156
▁ग्रुंइशा	-8.51625
▁मपने	-8.51626
▁थिशा	-8.51645
▁बेक्‍शा	-8.51658
▁चढ़ेशो	-8.51754
▁कोंइब	-8.52214
▁भेडा	-8.52238
▁जाक्‍मा	-8.52876
▁देंनीम	-8.52951
शेंथ	-8.5304
▁यरूसलेममी	-8.53174
कसम	-8.53489
▁सेल्‍तु	-8.53865
▁क्‍याम्‍चा	-8.53888
▁थुम्‍शा	-8.53904
▁बाक्‍नीकी	-8.5396
▁दाक्‍शा	-8.53971
की	-8.54244
▁खाल	-8.54401
▁ओदें	-8.54858
▁सुइश्‍शो	-8.55109
गुर	-8.55165
▁खाल्‍पा	-8.55806
▁नित्‍तीके	-8.55829
▁नाइश्‍शा	-8.56265
▁पाइनीनी	-8.56268
▁खत	-8.56452
▁थर	-8.56453
▁न	-8.56546
▁पाइबा	-8.56547
▁मचाप्‍	-8.56561
▁शेंतीके	-8.56886
▁अर्	-8.56976
▁गेवा	-8.5736
▁बाक्‍तीकेमी	-8.57951
▁होस	-8.58734
▁तुइक्‍चा	-8.58785
▁ङांइ	-8.59027
▁तेको	-8.59057
▁ख्रोइक्‍ती	-8.59079
नीनी	-8.59263
त	-8.59406
स्‍सा	-8.59472
▁फश	-8.60242
▁हि	-8.6055
▁लमा	-8.60815
च	-8.60973
▁ब्रेक्‍ताक्‍ङ	-8.61168
ेना	-8.61331
▁पावो	-8.61367
▁सोइक्‍ब	-8.614
▁गाक्‍शो	-8.61502
▁मा	-8.61621
था	-8.62448
▁दाक्‍स	-8.63146
▁जो	-8.63149
▁फरिसीपुकी	-8.63476
▁गारशा	-8.63792
▁पुंइसीशा	-8.63808
▁छिङछिङ	-8.63996
▁बाक्‍मानु	-8.64567
▁शीम	-8.64826
▁फ	-8.64851
▁तेल	-8.65003
‍शो	-8.65107
▁यहूदीपुकी	-8.65364
▁मेकोपुकीम	-8.65591
▁थम	-8.6606
▁गाक्‍	-8.66093
ुंब	-8.66109
▁लांमी	-8.66117
▁बाक्‍	-8.66343
▁थेक्‍शा	-8.66364
▁तुइक्‍नय	-8.66392
री	-8.66401
▁चाप्‍नीनी	-8.66403
▁फिलीप	-8.66404
▁बारनाबास	-8.66407
▁शांबु	-8.66407
▁चाक्‍शा	-8.6642
▁योव़शा	-8.66436
सु	-8.67318
▁फेक्‍	-8.6747
▁दातेम	-8.67516
▁चि	-8.67751
▁जि	-8.68735
▁नकी	-8.68858
▁टिशा	-8.69065
▁बाक्‍सा	-8.69248
▁ब्रोंइतीक	-8.6948
▁दु	-8.6961
▁रुप्‍	-8.69639
▁सेल्‍ने	-8.6983
▁कोव़	-8.69937
खु	-8.7025
▁जाइब	-8.70461
ंब	-8.70811
आ	-8.71276
▁कबल	-8.71599
▁दुम्‍मे	-8.71805
▁सत्रु	-8.71832
▁सासन	-8.71864
▁ग्‍येरसीशा	-8.71865
▁लीशो	-8.71937
▁सास्‍त्री	-8.71974
▁वाइली	-8.72094
▁ग्‍यु	-8.72431
कोव़थ	-8.7333
▁तुइक्‍तीक	-8.7335
▁इस्राएल	-8.73453
▁सोइक्‍ता	-8.73659
▁जेल्‍खानम	-8.73897
ती	-8.7395
▁ग्रुम्‍तीके	-8.74095
कानु	-8.74323
▁देय	-8.74376
▁सुइक्‍तीक	-8.74378
▁आम	-8.74695
▁कप्‍तान	-8.74697
▁खोइश्‍शा	-8.74715
▁मतुइक्‍नीनी	-8.74726
▁इजीप्‍त	-8.74746
▁शारा	-8.74747
ुश	-8.74859
▁लमाक्‍त	-8.74913
▁लावो	-8.74918
नुङ	-8.75499
▁शें	-8.75802
▁पामेनु	-8.76421
▁सोइक्‍त	-8.76497
▁लत	-8.7748
▁दुम्‍मल	-8.77641
▁ग्‍येरशा	-8.77678
▁नवे	-8.77746
▁लाइक्‍चा	-8.77846
▁मताइनीम	-8.77964
▁पपाइश्‍शो	-8.77973
▁पोक्‍च	-8.78019
▁दाक्‍चा	-8.78136
▁दुम्‍ल	-8.78148
▁योक्‍शा	-8.78215
शेंब	-8.78686
▁खोइक्‍ब	-8.79032
▁जाक्‍च	-8.79098
▁सिपाही	-8.79204
जा	-8.79574
▁बुस्‍स	-8.79581
ाइश्‍शो	-8.79628
▁मे	-8.79693
‍शा	-8.79779
▁कुम्‍सो	-8.80429
▁हें	-8.80526
▁महिंथु	-8.80665
▁सेंसीशा	-8.80692
▁खुम्‍सीशा	-8.80709
▁देंनीनी	-8.80729
▁सावल	-8.80856
▁सरकार	-8.80881
▁कुरशा	-8.80951
्‍यो	-8.80961
▁निप्‍	-8.81377
▁जेल्‍खान	-8.81572
▁एक	-8.82028
▁गेमी	-8.82425
▁ब्री	-8.8263
▁शी	-8.83048
▁दुम्‍	-8.83339
▁योव़	-8.83427
▁एके	-8.8346
▁उइक्‍थ	-8.83788
▁मतुइक्‍थु	-8.8379
▁क्‍याइश्‍शा	-8.83799
▁वोइक्‍चा	-8.83865
▁पोक्‍शा	-8.83874
▁राप्‍शा	-8.83908
▁बाक्‍नय	-8.83912
▁दुम्‍नीनी	-8.83924
▁गार	-8.84164
▁वोलम	-8.84246
▁स्‍वर्गम	-8.84287
ङ	-8.84427
▁कोंइ	-8.85528
▁ग्रुम्‍	-8.85751
▁खोइली	-8.86581
थाम्‍चा	-8.86635
▁सोरुल	-8.87011
▁निम्‍फा	-8.87012
▁तिरो	-8.87012
▁खोला	-8.87164
▁मतुइक्‍ब	-8.87232
▁दुम्‍मा	-8.87394
▁बाक्‍ती	-8.87861
▁चाप्‍बा	-8.87942
▁थीब	-8.87948
▁तामे	-8.88069
▁भोज	-8.88133
▁सेला	-8.88345
▁रि	-8.88472
▁पच	-8.88589
सीशो	-8.8861
▁र	-8.88943
▁मनङ	-8.89818
▁सेल्‍	-8.90175
▁दुम्‍तेक्‍म	-8.9019
▁जग	-8.90407
▁मतुइक्‍नुङ	-8.90493
▁चाड	-8.90529
िक्‍सी	-8.90602
▁मुरुम	-8.90849
देंशो	-8.91769
नोफा	-8.91858
▁नमी	-8.91899
▁बारन	-8.92721
▁ता	-8.92947
▁बार	-8.92981
▁साइक्‍ब	-8.93053
▁हजुर	-8.93252
नेसी	-8.93563
थे	-8.93609
▁तिमोथी	-8.93793
▁मथीब	-8.93802
▁जाक्‍तेक्‍म	-8.93869
थमा	-8.9392
म्‍शो	-8.93957
▁दुम्‍मेनु	-8.94048
▁सहे	-8.94063
▁मपचा	-8.9407
ेमी	-8.94108
को	-8.94133
▁जोक्‍तीक	-8.95111
हे	-8.95211
▁सेल्‍ती	-8.95338
▁या	-8.95457
▁पुंइन	-8.95679
▁नेल्‍ले	-8.96285
▁पापी	-8.96327
ीक	-8.96362
▁खोइ	-8.9686
▁तांइसीब	-8.9695
▁पुंइ	-8.96986
▁ग्रा	-8.97178
▁कोव़ज	-8.97376
▁फेक्‍चा	-8.97514
▁शेंनीकी	-8.97534
▁नाइक्‍चा	-8.97543
▁थिती	-8.97548
▁यि	-8.979
▁बारना	-8.97918
▁कका	-8.97978
▁देंती	-8.98042
मो	-8.98402
▁लने	-8.98596
▁नेंचा	-8.99119
इं	-8.99209
▁दुम्‍तीके	-8.9955
▁मिक्‍चीम	-8.99981
▁गोठला	-9.00083
▁बाक्‍बपुकी	-9.00323
▁लाइनुङ	-9.00591
▁राप्‍	-9.00659
▁पाइनीमी	-9.0067
बा	-9.00789
▁मीम	-9.01066
▁प्रुङग	-9.01068
▁थाम्‍पा	-9.01087
▁खुप्‍शा	-9.01111
▁ब्‍वचा	-9.01152
▁मिम्‍तीन	-9.01186
▁कोंइशा	-9.01187
▁केप्‍शा	-9.0119
▁मी	-9.01307
▁वाइ	-9.01405
ाम	-9.01489
ख्रीस्‍त	-9.02332
ुम	-9.02374
▁पुक्‍खी	-9.03007
▁श्‍ये	-9.03326
▁मेकोम	-9.03366
▁बेक्‍	-9.03736
▁जेर	-9.04153
बाक्‍माक्‍त	-9.04331
▁रुम्‍सीब	-9.04392
▁ख्रुइश्‍शा	-9.0493
▁मतथु	-9.0493
▁फाल्‍शा	-9.04949
नीकी	-9.04974
पाइक्‍ब	-9.0502
▁जाक्‍दीत्‍त	-9.05022
ाक्‍त	-9.0512
▁ब्रेक्‍शा	-9.05145
▁तुइक्‍पाइक्‍चा	-9.05159
▁साइश्‍शो	-9.05284
▁देव	-9.0534
▁देंने	-9.05434
▁माइक्‍चा	-9.05525
▁पुंइसी	-9.05723
ेत्‍थ	-9.05849
▁बाक्‍ल	-9.05984
प्‍शा	-9.06464
▁ग्रीक	-9.06926
▁सामरी	-9.06949
▁दाक्‍तीके	-9.07018
▁मपाइश्‍शो	-9.0702
▁पि	-9.07577
प्‍शो	-9.07808
▁गेनुङ	-9.08127
▁ब्रा	-9.08237
▁मिम्‍ब	-9.08342
▁हिंमा	-9.0839
▁लीब	-9.08524
▁पोक्‍ब	-9.08538
▁तुइक्‍ताक्‍ङ	-9.08916
▁सोइक्‍ताक्‍व	-9.08929
▁मचाप्‍नीनी	-9.08962
▁टिचा	-9.09
हेंथ	-9.09029
डा	-9.09136
▁माल्‍नय	-9.09154
▁दाक्‍नुङ	-9.09168
▁ब्रेश्‍शो	-9.09191
▁सिजर	-9.0921
▁ग्रुम्‍चा	-9.09278
▁शेंताक्‍मी	-9.09339
▁चां	-9.09417
▁लाइश्‍शो	-9.09439
▁सेल्‍न	-9.09579
▁जाक्‍चा	-9.09585
▁स्‍वर्गमी	-9.09798
▁शे	-9.10026
▁रोमी	-9.10229
▁ओव़	-9.10256
▁गाक्‍चा	-9.10303
▁ग्‍याइक्‍	-9.10685
▁खपीम	-9.11388
▁बेक्‍मा	-9.11419
पावल	-9.11735
▁सेंदामी	-9.12297
िनु	-9.12593
▁मासीडोनीया	-9.12974
▁कागज	-9.13081
▁वांचेर	-9.13081
▁मतुइश्‍शो	-9.13109
▁फ्रेंशा	-9.13136
▁चिक्‍शो	-9.13175
▁मिम्‍चा	-9.13318
▁दुम्‍ने	-9.13322
ाक्‍चा	-9.13359
▁हुक	-9.13381
▁पुना	-9.1341
▁एलीया	-9.13559
वा	-9.13714
▁तू	-9.14007
▁लल	-9.14215
राप	-9.14472
▁मिम्‍	-9.14473
▁बेक्‍त	-9.14484
▁देंमुम	-9.14586
▁जाक्‍	-9.14928
▁मप	-9.15037
▁ग्रू	-9.15115
ं	-9.15167
▁पय	-9.15395
बु	-9.15452
▁सुइश्‍शोमी	-9.15742
श	-9.16061
▁ड	-9.16122
प	-9.16278
▁कि	-9.16337
▁ब्रोंइ	-9.16549
▁गिवार	-9.1743
▁टापु	-9.17433
▁मगेथु	-9.17439
▁शेंदा	-9.17465
▁ब्रेम्‍शो	-9.17484
▁बाक्‍ङानु	-9.17564
▁रिम्‍शा	-9.17617
▁जाक्‍माक्‍त	-9.17633
▁नासर	-9.17907
▁ब्रशा	-9.17923
▁गेयीनी	-9.18042
▁गेमे	-9.18236
▁नेंब	-9.18663
▁माल्‍	-9.18917
▁लो	-9.18939
▁कोठा	-9.19124
ङानु	-9.19991
▁रित	-9.20076
▁सेल्‍नुङ	-9.20456
▁सें	-9.20491
▁श	-9.20521
▁मिम्‍न	-9.20543
त्ती	-9.21383
ीम	-9.21457
पाइश्‍शा	-9.21531
▁बाक्‍तक	-9.21692
ट	-9.21698
▁कचौरा	-9.21974
▁यसैया	-9.21974
▁तांइसाक्‍व	-9.21976
▁हीरा	-9.21977
▁तीतस	-9.21978
▁राशी	-9.21981
▁मप्रोंइथु	-9.21982
▁कोंइताक्‍व	-9.21986
▁ताप्‍तु	-9.22001
▁मदुक्‍ब	-9.22017
ंइच	-9.2203
▁मतुइक्‍नीम	-9.22112
▁नित्‍थ	-9.2213
▁अ	-9.22166
▁पुंइसे	-9.22259
▁कोव़चा	-9.22336
▁मुलाक्‍त	-9.22358
ची	-9.22436
▁सेस	-9.22557
▁जिम्‍	-9.22837
▁पाइक्‍चा	-9.22994
▁तरवार	-9.23163
▁ब्रोंइशो	-9.23166
▁थुंम	-9.23255
▁टीब	-9.23452
ाइक्‍तु	-9.23583
▁कोव़न	-9.23923
▁गाक्‍मा	-9.24569
▁खिंम	-9.24598
▁किताब	-9.25127
▁ख्र	-9.25165
सीशा	-9.25526
क्‍शो	-9.25746
ोव़शो	-9.25777
▁तुइक्‍नीम	-9.25822
▁गुइम	-9.25863
▁दाक्‍नीम	-9.259
▁चाप्‍नीम	-9.25915
▁एन्‍टीओक	-9.26517
▁एफिसस	-9.2674
▁कीशा	-9.26802
▁क्‍योरशा	-9.2681
▁मदाक्‍ब	-9.26847
▁लाम्‍तेक्‍म	-9.26875
▁यिशा	-9.26894
▁रुप्‍शा	-9.26901
▁गाक्‍मानु	-9.26927
▁कोंइचा	-9.26959
▁सुइक्‍ने	-9.27025
▁सोइक्‍चा	-9.27162
▁मिम्‍तीने	-9.27512
तीनी	-9.27738
सा	-9.27854
▁चाप्‍नीमी	-9.27986
▁ओ	-9.28058
▁चाप्‍	-9.2811
▁फ्रा	-9.28115
क्‍माक्‍त	-9.28228
‍चा	-9.28307
▁शेंने	-9.28652
▁मिक्‍चीमी	-9.28916
▁पाइश्‍शा	-9.29059
▁मबा	-9.29099
िंम	-9.29477
▁जाक्‍ती	-9.2949
▁लाङगा	-9.2949
▁कोर	-9.30766
▁नरक	-9.30781
▁मपाइनीम	-9.30785
▁निक्‍शीम	-9.30889
ुइ	-9.30907
▁शेंनीम	-9.3102
ीमी	-9.31043
▁हांबु	-9.31623
▁ओख्‍ती	-9.31736
▁मुददा	-9.31736
ोव़श	-9.31737
▁बजे	-9.31747
▁ताइतक	-9.31757
▁मतामे	-9.31772
▁मिम्‍नीनी	-9.31773
▁शोक्‍शा	-9.31779
▁सिजरिया	-9.31818
▁ब्राशा	-9.31821
ताक्‍व	-9.31844
▁शेशा	-9.31865
▁इच्‍ची	-9.31941
▁दाक्‍नीनी	-9.31946
▁सेंसीशो	-9.31951
▁लाजरस	-9.32008
▁यु	-9.3203
▁हुल	-9.32035
▁ग्‍याप्‍	-9.32152
▁सोइश्‍शोपुकी	-9.32154
▁ग्रूशो	-9.32191
▁थु	-9.3223
▁हिक्‍सी	-9.32306
▁एसीया	-9.32397
▁गेतीनी	-9.32506
ग	-9.32664
▁गेम्‍तेक्‍म	-9.32804
ुमी	-9.33734
▁यहूदीपुकीम	-9.33862
▁खाल्‍पापुकी	-9.34855
व	-9.34986
▁पुक्‍	-9.35427
▁ग्रुंइब	-9.35584
▁लाइनीम	-9.3596
▁थ	-9.35963
▁सि	-9.36504
ओ	-9.36578
▁सुर	-9.36774
▁महिन	-9.36887
ुर	-9.36932
▁मचबेम	-9.37
▁चांदी	-9.37006
▁मताइनीनी	-9.37032
▁दोरशा	-9.37038
ीन	-9.37062
▁तुप्‍शा	-9.37083
▁टिने	-9.37086
▁शेंताक्‍व	-9.37148
▁ताक्‍शा	-9.3716
▁माल्‍शा	-9.37169
▁ए	-9.37211
▁मतशो	-9.37278
▁लाक्‍मा	-9.37307
▁खोद	-9.37376
▁साशा	-9.37464
▁वोदा	-9.3752
▁देंमानु	-9.37788
▁ग्‍येर	-9.37818
▁गोवा	-9.38048
▁पाला	-9.3822
▁दोदें	-9.38324
▁रों	-9.38394
क्‍क	-9.38441
▁तुइक्‍	-9.3916
▁रुप्‍तीक	-9.39525
▁खोदें	-9.39661
▁थुम्‍	-9.39675
▁हिरन	-9.40293
▁बाक्‍य	-9.40708
▁गेन	-9.4082
ेम	-9.41579
तु	-9.41589
▁ने	-9.41619
▁गा	-9.41644
▁पेर	-9.41688
▁शेंबपुकी	-9.41738
▁पुंइब	-9.41754
▁माल्‍नुङ	-9.42132
▁देल्‍शो	-9.42159
▁नेल्‍लेम	-9.42398
▁स्‍तीफानस	-9.42555
▁शोव़लु	-9.42558
▁चेरब	-9.42561
दमी	-9.42562
▁मलीब	-9.42597
▁क्‍याम्‍शा	-9.42607
▁मिम्‍नुङ	-9.42607
▁सिलास	-9.42644
▁ताम्‍तेक्‍म	-9.42649
▁सोइश्‍शा	-9.42653
▁चोक्‍चा	-9.42687
▁लेश्‍शो	-9.42693
▁मदुम्‍बा	-9.42751
पाइक्‍तु	-9.42805
▁मिन	-9.42883
ाही	-9.43292
▁तुर	-9.43312
▁पङा	-9.4333
▁दाक्‍बा	-9.43677
▁टा	-9.43752
▁सक्तिम	-9.44256
▁जाक्‍नुङ	-9.4436
▁किताबमी	-9.44374
नेवे	-9.44481
ेच	-9.44598
▁बे	-9.4478
▁पुन्‍	-9.45007
▁महिक्‍	-9.45154
▁छेङछेङम	-9.45482
▁ताम्‍बु	-9.45483
▁खप	-9.456
सुइ	-9.45646
▁थोक्‍	-9.45827
▁जन	-9.45913
▁इर	-9.46015
▁तन्‍	-9.46056
▁सिल	-9.46166
▁चाक्‍	-9.47041
▁सास्‍त्रीपुकी	-9.47093
ानु	-9.4722
▁मबाक्‍नीम	-9.47475
▁सेल्‍नीम	-9.47721
▁सोइक्‍ती	-9.47967
▁कापेरनाउम	-9.48437
▁माल्‍नेवे	-9.48447
▁मथिथु	-9.48449
▁दाक्‍मुशा	-9.48456
▁पाप्‍तीवी	-9.48469
▁देनीन	-9.48547
▁नेन्‍मे	-9.48551
▁सुइक्‍तीनी	-9.48555
▁माल्‍मे	-9.48558
▁मगेने	-9.48561
▁पिशा	-9.48627
▁पुंइसमा	-9.48635
▁गेती	-9.4867
▁गोस्‍स	-9.48771
▁हिंचा	-9.48857
▁दुम्‍तय	-9.48858
▁पोव़	-9.48987
▁बुद	-9.49013
▁फेक्‍शा	-9.49043
▁वोदमे	-9.49121
▁दमस्‍कस	-9.49183
▁रुश	-9.49225
▁आलपुकी	-9.49235
▁लाक्‍	-9.49377
सीब	-9.49801
बपुकीमी	-9.49866
▁केन	-9.49912
ङा	-9.50162
म्‍माक्‍त	-9.50284
▁प्र	-9.50648
▁जकरिया	-9.51009
रे	-9.51048
▁लाङगाम	-9.51158
▁जामे	-9.52057
▁आदम	-9.52277
▁वोइक्‍	-9.52698
▁पपाइक्‍ब	-9.52767
▁चाक्‍दीत्‍	-9.52836
▁माल्‍नीमी	-9.52994
्ता	-9.53139
▁रोम	-9.53342
▁मदाक्‍नीम	-9.53484
▁जाइनीम	-9.53673
▁पाइक्‍न	-9.53798
▁पस	-9.53836
ोरी	-9.53845
▁क्‍ये	-9.54271
▁टलेन्‍ट	-9.54687
▁मसिप्‍ब	-9.54687
▁ख्रोइश्‍शा	-9.54695
▁लेवी	-9.54702
▁दाक्‍ताक्‍नी	-9.54704
▁मपाइनीनी	-9.54712
▁योव़तु	-9.54721
▁तुइक्‍नीकी	-9.54741
▁प्रोक्‍शा	-9.54742
▁सुइक्‍तेक्‍म	-9.54852
▁मूर्ख	-9.54903
▁इसहाक	-9.54903
▁ग्‍याइक्‍चा	-9.54917
▁चढ़ेचा	-9.54939
▁पुंइसीनीनी	-9.5496
▁पनीनु	-9.54969
▁ग्री	-9.54979
▁ब्रेक्‍पाइक्‍ती	-9.55043
▁ब्रोव़	-9.55069
▁तुंइ‍सीब	-9.55104
▁कछडी	-9.55246
▁देंबा	-9.55644
▁दिशो	-9.55694
▁नेंबपुकी	-9.55759
▁फेक्‍श	-9.55774
▁मगार	-9.55833
▁उइ	-9.56305
▁मबाक्‍कीन	-9.56413
▁अरे	-9.57221
▁ग्‍येरसीने	-9.57304
▁फेक्‍तीक	-9.57504
▁चढ़ेबपुकी	-9.57683
▁दोशो	-9.57712
▁सिपाहीपुकी	-9.57925
▁ब्‍वाक्‍	-9.57955
्री	-9.58062
इश्‍शो	-9.58201
▁चोव़	-9.58252
रीब	-9.58354
ेर	-9.58736
▁यहूदामी	-9.58987
▁चाप्‍नुङ	-9.59089
▁रा	-9.59253
बाक्‍मा	-9.5926
नय	-9.59439
▁प्रिं	-9.598
▁कोंइतीक	-9.60185
▁गारो	-9.60292
▁मिम्‍नीम	-9.60341
▁कोव़स	-9.60437
▁चू	-9.60451
▁चढ़े	-9.60587
▁क्‍य	-9.60748
िम्‍मा	-9.60955
▁रुपीन	-9.61159
▁दुमीन	-9.61242
▁बाक्‍तीकेम	-9.61327
▁ब्राख्‍ये	-9.61354
▁हिब्रू	-9.61354
▁बेथानी	-9.61354
▁प्रुइश्‍शा	-9.61357
▁ममिम्‍थु	-9.61359
▁मटिथु	-9.61374
▁पाइनीकी	-9.61376
▁चोव़ख	-9.6138
▁फू	-9.61383
▁सांफा	-9.61391
▁मपाइनुङ	-9.61409
ाप	-9.61416
▁खाइश्‍शा	-9.61419
▁ख्रिनु	-9.61431
▁ताइतीनी	-9.61435
▁जाक्‍दीस्‍सा	-9.61465
▁महिनीन	-9.61475
▁सोइक्‍नुङ	-9.61482
▁गाक्‍तेक्‍म	-9.61515
▁लेत्‍तीन	-9.61541
▁गाक्‍त	-9.61578
▁सुदमे	-9.61583
▁मबाक्‍शो	-9.61634
▁ग्‍येरसीशो	-9.6169
▁निप्‍ब	-9.61745
▁कोव़ङीन	-9.61759
▁बाक्‍मल	-9.61805
▁पुंइसाक्‍म	-9.61806
▁पू	-9.61815
▁गेनन	-9.62025
▁माइश्‍शा	-9.62042
▁मरुप्‍ब	-9.62064
▁गाक्‍ती	-9.62183
▁गेनीम	-9.62232
▁कु	-9.62242
▁आबी	-9.62265
▁हेर	-9.62324
▁देंसा	-9.62594
▁मटि	-9.62632
▁क्‍याम्‍	-9.63211
▁मनमी	-9.63325
▁शेंनीमी	-9.63441
▁नित्‍तीकेम	-9.6354
▁ङाक्‍न	-9.63669
ह	-9.63782
▁ब्‍वा	-9.63823
▁भ	-9.63958
▁हुशेम	-9.64118
ल्‍लो	-9.64185
पदमे	-9.64692
क्‍ब	-9.64995
मेक्‍ल	-9.65053
गेपुकी	-9.6522
▁मोदें	-9.65904
ख्रि	-9.66054
क्‍शा	-9.66326
▁गध	-9.66339
▁ख्रो	-9.66339
▁हिं	-9.66389
▁हिर	-9.66553
हजुर	-9.66579
ाइक्‍तीमी	-9.66583
▁तुइक्‍तीन	-9.66831
▁यावेम	-9.66871
▁सोइक्‍ताक्‍ङ	-9.67033
▁नेंने	-9.67205
▁ख्रुइ	-9.67212
‍	-9.6741
▁शेंसीबपुकीम	-9.67558
▁कोक्‍के	-9.67614
ाप्‍शो	-9.67714
ध	-9.67798
क्‍तु	-9.67937
क्‍नीम	-9.68094
▁पुं	-9.68328
▁ब्राइब	-9.68359
मुम्‍तेक्‍म	-9.68375
▁खोइय्‍यी	-9.68497
▁गाल्‍च	-9.68497
▁धूप	-9.68497
▁फेस्‍तस	-9.68497
▁ग्‍येरसाक्‍यी	-9.68499
▁ताइतय	-9.68501
▁सेंताक्‍व	-9.68504
▁मप्रोनीन	-9.68506
▁मसुइक्‍नीनी	-9.68514
▁हुइश्‍शा	-9.68519
▁देनार	-9.68524
▁ख्रोइश्‍शो	-9.68524
▁जिक्‍शा	-9.68526
▁लेयशा	-9.68529
▁खाप्‍ब	-9.68559
▁चो	-9.68563
▁शेंनन्‍नी	-9.68564
▁कोव़ङानु	-9.68578
▁पाइतक	-9.68584
▁ताइनय	-9.68594
▁सेल्‍तीनी	-9.68594
▁शिरशो	-9.68601
▁गाइश्‍शा	-9.68614
▁तूशा	-9.68629
▁सिर	-9.68654
▁साइक्‍पाइक्‍चा	-9.68671
▁ग्‍योम्‍	-9.6868
▁रुपीने	-9.68726
▁सुइक्‍नुङ	-9.68765
▁सुम्‍शा	-9.68768
▁मिम्‍तीके	-9.68937
▁देंतीनी	-9.68951
▁लेम्‍मा	-9.69
▁सोइक्‍तीम	-9.69151
▁माल्‍न	-9.69213
▁माइक्‍तीम	-9.69232
▁ग्‍येरपाइक्‍तीक	-9.69486
▁खुम्‍	-9.69626
▁गन	-9.69704
▁रुप्‍च	-9.69998
▁मु	-9.70003
▁हुर	-9.70023
म्‍सेक्‍ल	-9.70031
▁कुन	-9.70378
▁ब्रेत्‍च	-9.70515
▁ङाक्‍शा	-9.70525
▁बाक्‍ने	-9.70589
▁बेक्‍च	-9.70759
ीसीया	-9.7081
▁दुम	-9.71085
▁गोपुकीम	-9.71192
▁प्रोक्‍म	-9.7124
▁माल्‍बा	-9.71244
▁बाक्‍कीने	-9.7137
▁नेंना	-9.71515
▁मदुमीन	-9.72289
▁ङोइक्‍ब	-9.72316
▁इस	-9.72321
▁देंनीमी	-9.72469
▁कोव़ङमे	-9.72656
ङोंइती	-9.72898
▁वोइक्‍ब	-9.73842
▁वो	-9.74062
तीकेमी	-9.74086
▁सापाइक्‍	-9.74273
▁मरुप्‍	-9.74478
▁सुइक्‍बा	-9.7451
▁खोइलीम	-9.74546
ै	-9.74686
▁ग्‍याइल	-9.74848
▁दुम्‍शोपुकी	-9.7513
▁बाक्‍नीस	-9.75298
▁मजाक्‍म	-9.75644
▁मबाक्‍तीके	-9.75668
▁लोक्‍बपुकीमी	-9.7579
▁ब्रीश	-9.75818
▁दुम्‍नय	-9.75846
▁गारब	-9.7589
▁बाक्‍तय	-9.75918
▁सोइक्‍ताक्‍यी	-9.76151
▁अन्‍द्रीयास	-9.76189
▁मइप्‍थु	-9.76194
▁पुनीन	-9.76196
▁माल्‍ताक्‍व	-9.76202
▁ग्‍येरसीनुङ	-9.76211
▁पवल	-9.76219
▁चोटी	-9.76224
▁जाम्‍तेक्‍म	-9.76239
▁नेंतक	-9.76241
▁तुइक्‍ताक्‍व	-9.76249
▁रोइश्‍शा	-9.76289
▁चोक्‍शा	-9.76303
▁ममाल्‍ब	-9.76315
▁पपाइक्‍तु	-9.76336
▁शेंनीनी	-9.76432
▁जिशा	-9.76436
▁बाक्‍नीनु	-9.76458
▁हनानीया	-9.76466
▁पवी	-9.76496
▁ब्‍यफ	-9.7676
▁रांम	-9.76776
ड	-9.76885
▁लील	-9.76905
▁सिप्‍ब	-9.77098
▁दुम्‍तक	-9.77212
▁वारचपुकी	-9.77313
▁मारथा	-9.77502
▁फो	-9.77654
▁लनी	-9.77898
ाक्‍तेक्‍म	-9.77898
▁मज	-9.78005
▁लन	-9.78121
▁नाइक्‍तीके	-9.78511
▁मजोक्‍ब	-9.79066
▁मगेब	-9.79104
▁ताप्‍	-9.79143
▁बेक्‍म	-9.79145
▁गेनुङमी	-9.79223
▁मनेंब	-9.79591
▁कना	-9.79686
ख	-9.797
प्‍तु	-9.79715
▁खाइक्‍त	-9.79778
▁पापम	-9.8002
ब्‍बा	-9.80055
▁ब्रोंइब	-9.80183
नेल्‍ल	-9.80238
▁लदमे	-9.80928
चो	-9.81285
गोपुकी	-9.81398
▁क्‍येप्‍श	-9.81656
रा	-9.81865
स्‍वर्ग	-9.81915
▁बारपाइक्‍	-9.82077
अर्को	-9.82188
▁खोइक्‍	-9.8239
ते	-9.82475
▁सल्‍	-9.82581
▁तुप्‍	-9.82587
मानु	-9.82634
ग्‍द	-9.82661
साइ	-9.83052
▁प्रोंइने	-9.83203
▁फाल्‍न	-9.83346
▁कोरिन्‍थ	-9.83446
▁तुइक्‍पाइक्‍	-9.83524
ीनी	-9.83644
▁गाक्‍नीम	-9.83706
▁जाम्‍	-9.83744
▁देंन	-9.83813
गेना	-9.83832
म्‍तेक्‍म	-9.83879
▁धर्म	-9.84522
▁सोलोमन	-9.84522
▁नोआह	-9.84522
▁राकसी	-9.84522
▁तपांइसाक्‍व	-9.84523
▁मबाक्‍थु	-9.84532
▁दोम्‍ली	-9.84535
▁पाइनय	-9.84545
▁मटीमे	-9.84548
▁राइनीम	-9.84557
▁मपङ	-9.84563
▁पुंइतु	-9.8457
▁देंनेवे	-9.84574
▁प्रोंइतु	-9.84579
▁ग्‍याप्‍शा	-9.84623
▁मदुम्‍ल	-9.84623
▁केफास	-9.84643
▁कोरनेलीयस	-9.84645
▁वोइक्‍तु	-9.8465
▁सेंसीब	-9.84654
▁थैलो	-9.8466
▁तोक्‍शा	-9.84669
फ	-9.84672
▁सोइक्‍तीने	-9.84672
▁गुप्‍शा	-9.84684
▁बारपाइक्‍ब	-9.84687
▁नेंतीनी	-9.84761
पु	-9.84766
▁साइश्‍शा	-9.84795
▁बेबीलोन	-9.84809
ग्‍यु	-9.84817
▁ग्‍युम्‍ले	-9.84826
▁तुइक्‍तीके	-9.84871
▁लेत्‍चा	-9.84878
▁तुइक्‍ता	-9.84928
ांस	-9.84929
नीनु	-9.84951
▁गाइश्‍शो	-9.84978
▁ओं	-9.8499
्‍दी	-9.85058
▁देल्‍शा	-9.85097
▁पुंइसाक्‍यी	-9.85118
▁कोइ	-9.85217
▁यीब	-9.85267
▁ताक्‍चा	-9.85288
▁चढ़ेतीके	-9.85346
▁पामेक्‍ल	-9.85379
▁थोव़की	-9.85421
▁फस	-9.85479
▁तुइक्‍पाइश्‍श	-9.85639
▁वोइक्‍तीके	-9.85732
▁शाक्‍श	-9.85885
▁थित्‍	-9.85942
▁कपटी	-9.86143
▁शो	-9.86168
▁जुक्‍त	-9.8624
ाथा	-9.86244
▁दाक्‍नीमी	-9.86445
दोन	-9.86542
▁को	-9.86608
▁हिंब	-9.86611
प्‍ता	-9.8696
▁ब्रेत्‍	-9.87272
र्त	-9.87328
▁२	-9.87528
▁पालामी	-9.8759
स्‍कु	-9.87695
▁ठिटा	-9.87987
▁बो	-9.8803
क्‍तेक्‍म	-9.88199
▁फशेम	-9.88346
▁मप्रोंइब	-9.88391
▁लदा	-9.88404
▁मदुम्‍	-9.89044
▁डोंगाम	-9.89327
▁नेंपाइक्‍	-9.89381
ाला	-9.89702
▁आप्‍शा	-9.8986
▁ग्रुम	-9.90031
▁निस	-9.90117
क्‍ने	-9.90257
▁ख्रीस्‍तम	-9.90419
के	-9.90461
▁मोसाम	-9.90578
मेकोपुकी	-9.90956
▁काम	-9.91031
▁तांइसी	-9.91102
बास	-9.91159
▁ख्रा	-9.91322
हो	-9.91378
शोब्‍ले	-9.91542
साक्‍व	-9.91651
▁पत्रुसम	-9.91836
▁हु	-9.91847
▁दार	-9.9222
‍ब	-9.92417
▁दाक्‍तीक	-9.9273
▁मचाप्‍मे	-9.92817
यर	-9.92838
प्‍का	-9.93057
▁अर	-9.93158
▁गि	-9.93159
▁चढ़ेतीक	-9.9342
▁मपामे	-9.93436
▁पमुमा	-9.93473
▁फेलीक्‍स	-9.93613
▁जुत्ता	-9.93613
▁थोमास	-9.93613
▁मसुइक्‍थु	-9.93622
▁तुइक्‍ताक्‍नी	-9.93624
▁मबेक्‍थु	-9.93626
▁तुइक्‍नेवे	-9.9363
▁ओंइशा	-9.93632
▁दाक्‍ताक्‍व	-9.93636
▁शेंताक्‍न्‍नी	-9.93637
▁दुम्‍पाइक्‍तु	-9.93639
स्‍ला	-9.93642
न्‍टा	-9.93651
▁दाक्‍मुचा	-9.93653
▁है	-9.93669
▁चुरशा	-9.93671
▁ताइनुङ	-9.93673
▁प्रोनीन	-9.93688
▁कोंइदा	-9.93693
▁पढेशा	-9.93695
▁माल्‍तेक्‍म	-9.93702
▁मपुंइसीब	-9.93723
▁बुंबु	-9.93745
▁सेल्‍तेक्‍म	-9.93746
▁ताइश्‍शा	-9.93781
▁चाक्‍ग्‍मे	-9.93801
▁तुइक्‍पदा	-9.93822
▁निश्‍शा	-9.93878
▁तुइक्‍तीने	-9.93931
▁जाक्‍नी	-9.9411
▁रूथ	-9.94172
▁पुंइनुङ	-9.94172
▁आइक्‍	-9.94191
▁पङानु	-9.9427
रदे	-9.94298
▁माल्‍नुङा	-9.94368
▁लसा	-9.94431
पाइक्‍तीमी	-9.94442
▁लमे	-9.94469
▁चिक्‍ब	-9.94602
▁शुशेम	-9.9531
▁चले	-9.9534
दन	-9.9536
▁नरकम	-9.95411
▁थुर	-9.95447
▁तुइक्‍नीमी	-9.9566
▁मबाक्‍त	-9.95785
▁जने	-9.95829
वानु	-9.95912
▁पिन	-9.95929
▁चोक्‍	-9.95981
▁बेक्‍ब	-9.96063
▁सीन	-9.96085
▁लायो	-9.96224
फा	-9.96245
▁तूब	-9.96349
▁गेतीमी	-9.96444
▁गेबा	-9.96654
▁जाक्‍बा	-9.96775
▁फाल्‍	-9.96823
रस	-9.96862
▁तेक	-9.96915
▁पोक्‍	-9.96971
▁अधिकारमी	-9.97025
पदा	-9.9721
र्	-9.97316
▁सुइक्‍	-9.97491
▁गेकी	-9.97585
▁कुश	-9.97642
▁नय	-9.97709
▁खेर	-9.97885
▁दल	-9.98197
पाइक्‍ने	-9.983
▁कुचुम	-9.98645
▁ब्रेम्‍मा	-9.98715
▁अरेतीक	-9.98758
▁रुप्‍पाइक्‍	-9.98803
सापाइक्‍चा	-9.98871
ोमी	-9.9911
मुशा	-9.99269
▁सुइम	-9.99833
पाप	-10.0001
▁तुइक्‍त	-10.0002
▁जाक्‍ङा	-10.0027
▁मिम्‍स	-10.0033
▁याइ	-10.0091
▁ग्रुंइतीक	-10.01
▁फि	-10.0165
▁ख्रुम्‍	-10.0175
क्‍नीनी	-10.0184
ुक्‍च	-10.0203
▁थिचा	-10.0205
दी	-10.0205
▁सापाइक्‍ब	-10.0212
▁खो	-10.0222
▁सोइक्‍	-10.0225
▁तपांइसे	-10.0249
पतीने	-10.0264
▁बोल्	-10.0271
चशो	-10.0278
▁वोइक्‍तीक	-10.0293
▁मनम	-10.0295
▁यर	-10.0305
▁ब्रेत्‍ता	-10.0315
▁मचाप्‍नुङ	-10.0316
दो	-10.0317
▁गोस्‍सुम	-10.0322
▁मगारब	-10.0325
▁दुम्‍नुङ	-10.0325
िं	-10.0335
▁मजा	-10.0351
▁ग्र	-10.0351
▁प्राक्‍	-10.0354
▁जरमेसे	-10.0355
▁बु	-10.0359
▁इस्‍कारीयोत	-10.0361
▁टल्‍केशो	-10.0361
▁ढोडोङगा	-10.0361
▁मर्कूस	-10.0361
▁साइप्रस	-10.0361
▁सोदोम	-10.0361
▁मिम्‍ताक्‍ङ	-10.0362
▁मशिरनुङ	-10.0362
▁रिक्‍मेनु	-10.0362
▁जाइनीनी	-10.0363
▁जाइतीनी	-10.0364
▁हुइक्‍तीमी	-10.0366
▁तामेक्‍ल	-10.0366
▁मरुप्‍नीनी	-10.0366
▁ममाल्‍नीनी	-10.0366
▁तेम्‍शा	-10.0368
▁दाक्‍नीकी	-10.0368
▁बाक्‍ङे	-10.0369
▁दुक्‍शा	-10.0372
▁गाक्‍ङानु	-10.0373
▁भो	-10.0374
▁मननी	-10.0375
▁थिस्‍सलोन	-10.0376
▁अग्रीप्‍पा	-10.0376
▁मिम्‍तो	-10.0379
▁पमुशा	-10.038
▁ख्रोइक्‍चा	-10.0381
▁मि	-10.0381
▁पाम्‍से	-10.0384
माइ	-10.0385
▁सुइक्‍नीनी	-10.0388
▁दाक्‍ता	-10.0388
▁मानेचा	-10.0389
▁गाइक्‍चा	-10.0393
▁गेनन्‍नी	-10.0396
▁सेल्‍मे	-10.0396
▁आपोल्‍लोस	-10.0396
▁मपावो	-10.0398
▁पुंइशा	-10.0399
▁पङ	-10.0401
▁खाइश्‍शो	-10.0402
▁पीब	-10.0402
▁ताइनेवे	-10.0407
▁दिंम	-10.0407
▁वाम	-10.0414
▁टिशो	-10.0418
▁रेन	-10.0427
यहूदी	-10.0435
▁लसे	-10.0445
▁देंमे	-10.0445
▁ब्रीशा	-10.0452
दानु	-10.0463
तम	-10.0467
▁मिम्‍तमे	-10.0467
▁फ्रु	-10.048
▁ति	-10.0499
▁चाक्‍ब	-10.0522
▁ममाल्‍नीम	-10.0523
▁नुप्‍च	-10.0537
▁एलीशीबा	-10.0541
▁गेनीनी	-10.0559
▁मतङ	-10.0561
▁ताइक्‍तीन	-10.0571
▁लय	-10.0588
ब्‍वाक्‍कुम	-10.0601
ुप्‍चा	-10.0638
▁समुन्‍द्रम	-10.0643
▁ब्‍व	-10.0658
▁शेंदमे	-10.067
रथे	-10.0704
प्‍पा	-10.0705
ल्‍शो	-10.0714
▁प्रोक्‍	-10.0732
▁बुस्‍सुम	-10.0739
▁बाक्‍ते	-10.0834
▁प्रभुम	-10.084
▁देल्‍मा	-10.0853
▁भा	-10.0867
एल	-10.093
▁सदुकीपुकी	-10.0939
▁ङाक्‍नीम	-10.0965
▁पावलम	-10.0971
त्‍थ	-10.0985
▁मदमे	-10.1021
▁राज्‍यम	-10.1026
▁पनी	-10.1067
ाइत	-10.1083
▁साङलो	-10.1102
नोले	-10.1136
▁मबाक्‍म	-10.1169
▁ख्रोइक्‍	-10.1174
▁मोती	-10.1195
▁चिन	-10.1195
तीन	-10.1206
▁सुइक्‍न	-10.1221
▁मला	-10.1275
▁बाक्‍नी	-10.1278
बे	-10.128
मरिम्‍शो	-10.1291
▁छा	-10.1305
ले	-10.1323
सुम	-10.1323
▁मदेंम	-10.1334
▁सेंसीनीम	-10.1354
▁छिङछिङम	-10.1373
‍यो	-10.1384
▁फिल	-10.1393
साब	-10.1427
नन्‍नी	-10.1429
प्‍चा	-10.1446
▁देंम	-10.1472
▁कान्‍छा	-10.1472
▁कुप्‍फीम	-10.1472
▁निन्‍द्रा	-10.1472
▁इम्‍ची	-10.1472
▁मयाक्‍थु	-10.1473
▁मक्‍याम्‍सीब	-10.1473
▁सोइक्‍तीम्‍सी	-10.1473
▁तुइक्‍तमेक्‍ल	-10.1473
▁मकोव़थु	-10.1473
▁हिनीन	-10.1474
▁जाक्‍दीम्‍मेनु	-10.1474
▁थुम्‍तु	-10.1475
▁ताक्‍तु	-10.1475
▁बोरपाइक्‍ब	-10.1477
▁पांइसीने	-10.1477
▁त्रो	-10.1478
▁मबेक्‍ब	-10.1479
▁ङोमु	-10.1479
▁सेल्‍नीकी	-10.1479
▁गाक्‍कीन	-10.1479
▁खाक्‍शा	-10.1481
▁बोरशा	-10.1481
▁मसुतीन	-10.1483
▁जाक्‍दीश्‍श	-10.1483
▁मब्‍वचा	-10.1484
▁छाल	-10.1485
▁जरो	-10.1486
▁गेवल	-10.1487
▁बेक्‍तेक्‍म	-10.1487
▁चोशा	-10.1487
▁माल्‍दा	-10.1491
▁दुइश्‍शो	-10.1492
ेन्‍स	-10.1492
▁मिम्‍ता	-10.1493
▁दारस	-10.1493
▁तनीनु	-10.1495
▁मचबा	-10.1495
▁बारशा	-10.1496
▁माइक्‍सी	-10.1496
▁मप्रोंइचा	-10.1498
▁ग्राशा	-10.15
▁सापाइश्‍शो	-10.1502
▁तुप्‍चा	-10.1502
▁तोक्‍चा	-10.1503
▁सामाक्‍त	-10.1503
▁नेनो	-10.1508
▁नाक्‍शा	-10.151
▁देनो	-10.1533
▁राप्‍पदमे	-10.1534
रोइ	-10.1535
▁पुंइचा	-10.1554
▁पिने	-10.1564
▁मतीन	-10.1565
मुलाक्‍त	-10.157
▁जाक्‍दीप्‍ब	-10.1576
▁ब्रेक्‍चा	-10.1593
▁नस्‍कु	-10.16
▁लेन्‍न	-10.1609
▁नसी	-10.1633
▁मपाइबा	-10.165
▁जब	-10.1654
▁ओव़त	-10.1677
▁लोव़म	-10.1685
ताक्‍न्‍नी	-10.169
▁मप्रोन	-10.1695
वो	-10.17
ाइक्‍ब	-10.1703
▁मपाइनीमी	-10.1707
▁ब्रेप्‍च	-10.172
▁सेंब	-10.1724
▁सेल्‍नीमी	-10.1738
रिक	-10.1746
▁शेंसी	-10.1747
रागीम	-10.1758
ाक्‍मा	-10.176
रागी	-10.1762
▁शेंताक्‍म	-10.1779
्रा	-10.1792
▁सुव	-10.1802
पांइसीचा	-10.183
ीया	-10.1836
▁रुप्‍ब	-10.1837
्‍शो	-10.1853
ारशो	-10.1857
▁वोइक्‍नीम	-10.1863
गेपुकीमी	-10.1864
▁लती	-10.1874
▁सेंसी	-10.1878
▁रु	-10.1886
▁ग्‍याइली	-10.1892
▁जोक्‍	-10.1894
छ	-10.1914
‍ने	-10.1917
▁तु	-10.1918
ोक्‍शा	-10.1919
▁मेन	-10.1923
ीयस	-10.1929
▁क्‍योर	-10.1936
▁मत	-10.1937
‍नीम	-10.1938
▁रिम्‍	-10.1958
▁चिक्‍	-10.1965
न्‍नी	-10.1976
▁गाक्‍सा	-10.1976
▁पुंइसीनी	-10.1982
▁भाल	-10.2002
▁मदुम	-10.2006
▁लास	-10.2042
▁मगेव	-10.2087
▁मबाक्‍तीकेम	-10.2096
▁ग्रान	-10.2111
▁थुल्‍	-10.2115
▁ग्‍याइक्‍ब	-10.2124
▁ग्रानीम	-10.2133
ुम्‍थ	-10.2134
ाइक्‍पाइक्‍चा	-10.219
▁ताइबा	-10.2201
▁मबेक्‍	-10.2203
नीमी	-10.2219
▁लेम्‍	-10.2233
दुम्‍शो	-10.224
▁चोक्‍सी	-10.2242
▁सुतीन	-10.2264
▁थिवा	-10.2285
▁दुम्‍च	-10.2289
▁बाक्	-10.2293
ाइक्‍चा	-10.2307
▁मोशो	-10.2332
्‍वा	-10.2357
▁ग्रूत	-10.2373
▁हुइक्‍ता	-10.2376
▁थिम्‍	-10.2384
ल्‍ब	-10.2402
▁पिपीम	-10.2417
बाक्‍तेक्‍म	-10.2418
ाप्‍चा	-10.2423
ेंचा	-10.2434
ाक्‍नी	-10.2444
टा	-10.2455
ठीक	-10.2458
▁तोक्‍	-10.2469
▁चेम्‍	-10.2507
बोरब	-10.2507
▁पापीपुकी	-10.2516
▁लेयब	-10.2543
श्‍शा	-10.2567
▁शेंनुङ	-10.2595
यस	-10.2618
बेर	-10.2638
▁जतीक	-10.2653
▁लतीक	-10.2659
पढेनी	-10.2667
▁शि	-10.2673
▁देंबाक्‍मा	-10.2694
▁बाक्‍बाक्‍मा	-10.2695
िरप	-10.2697
ुप्‍शो	-10.2704
▁सेलीन	-10.2706
लेइ	-10.2706
शुश	-10.2708
सुप्‍शो	-10.2712
▁नेंनीम	-10.2715
ाइ	-10.272
▁अक्‍वीला	-10.2722
▁अन्‍काल	-10.2722
▁काइयाफास	-10.2722
▁नथानेल	-10.2722
▁बेथलेहेम	-10.2722
▁दियारी	-10.2722
▁मख्रोइश्‍शो	-10.2723
▁नेन्‍मेक्‍ल	-10.2723
▁ममिम्‍नुङ	-10.2723
▁मलेत्‍थु	-10.2723
▁चिक्‍ताक्‍व	-10.2723
▁ब्रेत्‍ताक्‍व	-10.2724
▁मबेक्‍नीम	-10.2725
▁पुंइसाक्‍नी	-10.2725
▁तोइश्‍शा	-10.2725
▁मदाक्‍थु	-10.2725
िप्‍प	-10.2725
▁दाक्‍नेवे	-10.2725
▁ओनेसी	-10.2726
▁क्‍युक्‍शा	-10.2727
▁थिश्‍शा	-10.2727
▁ख्रुम्‍ब	-10.2729
▁दुम्‍चाप्‍तु	-10.273
▁बेक्‍नीनी	-10.2731
▁थुल्‍चा	-10.2732
▁डालो	-10.2732
▁जाम्‍ब	-10.2732
▁तुइक्‍ताक्‍क	-10.2733
▁चाक्‍दीश्‍शा	-10.2733
▁लाइक्‍तेक्‍म	-10.2733
▁शेंताक्‍ङमी	-10.2734
▁दाक्‍ताक्‍ङ	-10.2735
▁ग्रोव़	-10.2735
▁वोतो	-10.2736
▁रुप्‍ने	-10.2738
▁ताइनीकी	-10.2738
▁क्रेट	-10.274
▁मेल्‍कीसेदेक	-10.274
▁किप्‍शुर	-10.274
▁शेंताक्‍क	-10.2744
▁थाप्‍चा	-10.2745
▁सेंसाक्‍व	-10.2745
▁चिला	-10.2747
▁खुप्‍	-10.2747
▁मगेनी	-10.2752
▁कोंइदीने	-10.2757
▁पुनीने	-10.2759
▁खेरचा	-10.276
▁वोतीने	-10.2761
▁लें	-10.2766
एक	-10.2781
▁तातामी	-10.2785
▁दुमीने	-10.2787
▁शोक्‍शो	-10.2788
▁मचाप्‍तीके	-10.2792
▁हे	-10.2794
गी	-10.2795
▁ग्‍युम्‍ली	-10.2797
▁ब्राइबा	-10.2801
▁ब्रेक्‍न	-10.2803
▁बाक्‍ताक्‍स	-10.2812
▁कुरचा	-10.2828
▁सिनाक्‍त	-10.2828
▁ग्रीस	-10.2834
इक्‍तु	-10.2839
▁जुक्‍	-10.2849
▁सुइक्‍नीमी	-10.286
मान	-10.2878
▁आमेन	-10.2878
▁मदानु	-10.289
▁तांइसीबा	-10.2898
▁साचा	-10.2915
ेइ	-10.2936
▁मेर	-10.295
▁पाइबाक्‍माक्‍त	-10.2957
नीसी	-10.296
▁मथित्‍	-10.2987
▁गेता	-10.2996
▁ब्रेप्‍ब	-10.2998
▁पु	-10.3003
▁दुक्‍ब	-10.3006
न्‍न	-10.3016
ुंइसीब	-10.3041
▁कोंइनीम	-10.3043
▁बोर	-10.3075
▁मटितीके	-10.3102
ल्‍ल	-10.3104
▁मद	-10.3106
▁ब्रे	-10.3112
▁ममिम्‍तीन	-10.3121
▁मप्रेंदीन	-10.314
▁माइक्‍त	-10.3144
▁मब्र	-10.3158
▁सेल्‍य	-10.3158
▁जा	-10.3166
▁खु	-10.3169
न्‍ना	-10.3176
िक	-10.3253
बेक्‍शो	-10.328
▁तनी	-10.3282
▁दुम्‍नी	-10.3336
▁खाप्‍	-10.3349
▁लाइत	-10.3378
▁साइक्‍	-10.3431
▁बारपा	-10.3446
▁कुरब	-10.3472
▁सतीन	-10.3474
▁जाक्‍दी	-10.3478
ेस	-10.348
कोल	-10.3491
▁पढे	-10.3495
▁फ्रें	-10.352
▁नाक्‍	-10.3613
▁गुप्‍	-10.3615
पतीन	-10.3617
▁जरमे	-10.3627
मल	-10.3655
ान	-10.3657
▁फु	-10.3664
▁पित	-10.3689
थुं	-10.3691
▁शोव़ङ	-10.3697
▁रिक्‍चा	-10.372
सानु	-10.3721
▁खाल्‍पी	-10.3723
▁दल्‍	-10.3736
शी	-10.3743
▁सोव़	-10.3748
यरूसलेम	-10.3752
यूहन्‍ना	-10.376
पदसे	-10.3786
वी	-10.3797
▁ग्‍या	-10.381
्‍थ	-10.3831
▁मथि	-10.3834
▁मल	-10.385
▁पर्बमी	-10.3865
▁बेक्‍तीक	-10.3873
▁सोइक्‍ताक्‍	-10.3878
▁गारमा	-10.3895
आल	-10.3911
ढ	-10.3912
वोल	-10.3915
▁ग्रूब	-10.3939
नेनीने	-10.3962
नेनीन	-10.3965
▁था	-10.3985
पशो	-10.3988
मेरे	-10.399
▁शिश	-10.4025
▁साइक्‍पाइक्‍	-10.4028
खां	-10.4028
दमेनु	-10.4031
▁माने	-10.4036
▁लुक्‍	-10.4056
‍नी	-10.4077
▁चा	-10.4079
▁तिल्‍	-10.4087
पाइतीनी	-10.409
▁चाप्‍नीस	-10.4092
▁सुइक्‍नीम	-10.4103
▁हिंच	-10.4111
रीया	-10.4113
▁ग्रुमा	-10.4124
प्‍प	-10.4135
▁वोतीन	-10.4136
▁नुप्‍त	-10.4137
▁साइक्‍तेक्‍म	-10.4146
▁आरतेमीस	-10.4151
▁बेथसैदा	-10.4151
▁साइरेनी	-10.4151
▁मसेंसीनीम	-10.4151
▁हाम्‍सो	-10.4151
▁बाल्‍वा	-10.4151
▁फुरक	-10.4151
▁मदेंथु	-10.4152
▁क्‍याम्‍साक्‍व	-10.4152
▁मनेंथु	-10.4152
▁भोट	-10.4153
▁मचबु	-10.4153
▁मताइनुङ	-10.4153
▁मनुथु	-10.4153
▁शोइश्‍शा	-10.4154
▁जाइतक	-10.4154
▁बारपाइश्‍शा	-10.4154
▁मिम्‍ताक्‍व	-10.4154
▁ख्रेक्‍शा	-10.4155
▁थिम्‍मे	-10.4155
▁रोक्‍सीशा	-10.4155
▁नाइक्‍पाइक्‍ब	-10.4156
▁जाम्‍त	-10.4156
▁सोइक्‍ताक्‍नी	-10.4159
▁गुप्‍स	-10.416
▁तिल्‍शा	-10.416
▁रिक्‍शा	-10.4162
▁साते	-10.4162
▁तुइक्‍तमे	-10.4164
▁पुलु	-10.4165
▁मनवे	-10.4166
▁टीतीनी	-10.4166
▁ग्‍येरपाइक्‍चा	-10.4167
▁गिल्‍शा	-10.4168
▁तांइसेक्‍ल	-10.4169
▁फौज	-10.4171
▁दाक्‍तो	-10.4171
▁ख्रोइक्‍ब	-10.4172
▁तांइसे	-10.4172
▁माल्‍मा	-10.4172
▁पाइ‍ब	-10.4172
▁दें‍त	-10.4172
▁क्रोम्‍	-10.4173
▁कोंइनुङ	-10.4173
▁कोंइनीकी	-10.4175
▁साव	-10.4177
▁दाक्‍मुने	-10.4178
▁वोइक्‍ता	-10.4179
▁सेल्‍नीनी	-10.4182
ू	-10.4184
▁ब्रामे	-10.4184
महिनो	-10.4186
▁ग्रीचा	-10.4187
▁सुइक्‍नीकी	-10.4188
▁सेंशा	-10.4191
▁खाप्‍शो	-10.4191
▁शेंदन्‍नी	-10.42
▁गोठ	-10.42
▁कू	-10.4201
▁तुइक्‍ने	-10.4207
▁तुरस	-10.4209
▁पाइबाक्‍मा	-10.421
▁एथ	-10.4212
▁पुंइसीनुङ	-10.4214
▁हुइक्‍तमे	-10.4219
ेक्‍म	-10.4227
▁शेंबाक्‍माक्‍त	-10.4231
▁गेवो	-10.4232
▁चोक्‍सीश	-10.4237
▁हिउंद	-10.4247
न्‍ड	-10.4254
▁नेंसीब	-10.4262
सुदेम	-10.4282
▁नित्‍तीक	-10.4283
▁तेक्‍ब	-10.4286
▁क्‍याम्‍सीब	-10.4288
▁तुइक्‍ताक्‍म	-10.4292
▁फर	-10.4298
▁मतांइसीब	-10.4298
ब्रथ	-10.4329
▁मपव	-10.4339
▁दुमो	-10.4344
न्‍दा	-10.4368
▁लेयबपुकी	-10.4401
▁बेर	-10.4403
▁मसेल	-10.4405
▁यरूसलेमम	-10.4412
▁मली	-10.4416
▁जाक्‍दीत्‍चा	-10.4457
▁डांडाम	-10.4467
▁सास्‍त्रीपुकीम	-10.4468
▁मसुइक्‍बपुकी	-10.4475
पाइक्‍नीम	-10.449
▁शेंदु	-10.4509
नुङमी	-10.4526
▁दाक्‍तीन	-10.4526
▁सापाइक्‍ती	-10.4538
▁देंनी	-10.4544
▁दुम्‍ते	-10.455
बेक्‍चा	-10.4599
▁हा	-10.4603
▁प्रोंइबा	-10.4617
▁मथाप्‍	-10.4625
गर	-10.4647
▁सापाइक्‍न	-10.4657
▁साङलोम	-10.4657
▁लेय	-10.466
▁कोंइताक्‍	-10.4688
▁पाइबाक्‍त	-10.4692
▁सज	-10.47
▁आलम	-10.473
▁मप्रोंइ	-10.4734
▁पुंइसीबपुकी	-10.4753
व़मे	-10.4756
▁तने	-10.4778
▁ग्‍येरस	-10.4784
▁चाक्‍दी	-10.4796
▁लच	-10.4803
रवा	-10.4834
म्‍मा	-10.4835
▁दाक्‍ती	-10.4853
‍नुङ	-10.4859
▁नेंनी	-10.4882
तय	-10.4891
यीनी	-10.49
▁सदुकी	-10.4913
धा	-10.4935
स्‍की	-10.4942
तू	-10.4966
▁देंते	-10.5
जी	-10.5014
▁ब्रोंइती	-10.5016
▁रूम	-10.5025
▁यिन	-10.5048
▁तौपुकी	-10.5074
▁ताक्‍ब	-10.511
▁बाक्‍या	-10.5124
म्‍चा	-10.5139
▁लाइक्‍	-10.5153
▁कोठाम	-10.516
▁प्रेक्‍	-10.5168
▁ग्राब	-10.518
‍मा	-10.5224
▁भे	-10.523
मिम्‍तीने	-10.5234
▁गारपाइक्‍	-10.5241
इक्‍चा	-10.5244
▁चोव़दी	-10.5268
▁जेठा	-10.5278
▁सिपाइपुकी	-10.5294
▁तुइक्‍पाइक्‍ब	-10.5308
▁थाम्‍	-10.5322
▁कोंइन	-10.5334
▁हिक्‍	-10.5342
गा	-10.5347
▁बोक्‍	-10.536
▁चोक्‍स	-10.5389
▁ताइनीमी	-10.541
▁ब्रेक्‍पाइ	-10.5411
ठ	-10.5432
तून	-10.5436
ुम्‍की	-10.5442
▁थाम	-10.5443
▁मब्‍व	-10.5445
▁रुप्‍‍	-10.5455
▁तरवारम	-10.5466
अन्‍न	-10.5478
▁मचिक्‍	-10.5482
ाक्‍मेनु	-10.5506
ुम्‍चा	-10.5514
पाइक्‍थ	-10.5515
▁साब	-10.5531
ून	-10.5548
▁शेंबा	-10.5551
ोर	-10.5553
▁योना	-10.5555
१	-10.5601
▁महिं	-10.5607
पिवो	-10.5614
नाइक्‍तीक	-10.562
एलीया	-10.5621
▁कोंइने	-10.5635
▁नेंपाइक्‍ब	-10.5642
नासर	-10.5644
आस	-10.565
▁प्रो	-10.5661
▁बेक्‍ने	-10.5663
▁लि	-10.5708
▁टीनीम	-10.5714
▁तांइसीनीम	-10.5717
▁पुंइसाक्‍य	-10.5722
पाइक्‍तेक्‍म	-10.5725
रसस	-10.5731
▁ग्रु	-10.5777
▁गिल्‍	-10.5779
▁प्रोंइतीक	-10.5783
▁ग्‍येरसी	-10.5796
▁गन्‍धक	-10.5818
▁थनौरो	-10.5818
▁बिग्रे	-10.5818
▁रुब्‍य	-10.5818
▁बाछा	-10.5818
▁बग्‍गी	-10.5818
▁मजाक्‍दीत्‍थु	-10.5818
▁गुये	-10.5818
▁रोंगु	-10.5818
▁प्रेश्‍शा	-10.5818
▁गलातीया	-10.5818
▁मपाइनीकी	-10.5818
▁मशेंथु	-10.5818
▁मकाप्‍ब	-10.5818
▁मतामेक्‍ल	-10.5819
▁शोल्‍शा	-10.5819
▁पाइतय	-10.5819
▁बिश्‍शा	-10.5819
▁ग्रोइश्‍शा	-10.5819
▁मलाइनीम	-10.5819
▁तुइक्‍ताक्‍य	-10.5819
▁मप्रोंइनुङ	-10.582
▁जाइनुङ	-10.582
▁कोल्‍शा	-10.582
▁मगेयीनी	-10.5821
▁ताक्‍गा	-10.5821
▁पुंइसीनेवे	-10.5821
▁बोइश्‍शा	-10.5822
▁बोट	-10.5822
▁ब्‍वाइनीम	-10.5822
▁जाप्‍तु	-10.5822
▁दिदी	-10.5823
▁थाप्‍शा	-10.5824
▁महिक्‍नीम	-10.5824
▁ग्‍येरसीनीम	-10.5825
▁लाइनीनी	-10.5825
▁वोइक्‍तेक्‍म	-10.5826
▁पत्र	-10.5826
▁बुक्‍शा	-10.5827
▁सापाइश्‍शा	-10.5828
▁ग्‍येरसय	-10.583
▁बाक्‍‍त	-10.5831
▁सुइक्‍नय	-10.5831
▁चिक्‍शा	-10.5833
▁ताइक्‍तो	-10.5833
▁तकल	-10.5833
रुबेम	-10.5833
▁मसुइक्‍नीम	-10.5836
▁तूङीन	-10.5837
▁गिल्‍सीशा	-10.5838
▁देंनीकी	-10.5838
▁मीलु	-10.5838
▁देंङानु	-10.5839
▁राप्‍पदा	-10.584
▁मगेमे	-10.5841
▁रुप्‍मेक्‍ल	-10.5841
▁बोरपाइक्‍नुङ	-10.5842
▁लाक्‍गा	-10.5846
▁जाक्‍कीन	-10.5846
▁पात्‍के	-10.5848
▁पुंइता	-10.5851
ाथीया	-10.5851
▁मदेंनुङ	-10.5851
▁ब्‍वाइब	-10.5854
▁जारशो	-10.5857
▁सेलीने	-10.5859
▁मनेंशो	-10.5859
▁थिप्‍ब	-10.5862
▁क्‍येर	-10.5866
▁शेंदो	-10.5868
▁स्‍ता	-10.5868
▁दाप्‍तीके	-10.5873
ोस	-10.5873
▁चाप्‍नय	-10.5876
▁मुप्‍शा	-10.5883
▁जाक्‍मे	-10.5885
▁देंसीब	-10.589
▁बाक्‍‍ब	-10.5895
▁मजाक्‍ब	-10.5898
▁खुम्‍समा	-10.5898
▁कोव़ङीने	-10.59
▁डा	-10.5904
▁फाल्‍शो	-10.5904
▁दुम्‍पाइक्‍ब	-10.5911
▁बाक्‍ङा	-10.5922
▁चाक्‍चा	-10.5923
▁कुशा	-10.5929
▁नेंनीनी	-10.593
▁एन्‍टीओकम	-10.593
यी	-10.5931
▁गिग	-10.5932
▁ग्रुम्‍त	-10.5937
▁प्रोना	-10.594
▁सेल्‍सी	-10.5952
लेत्‍तेम	-10.5965
▁चोव़खे	-10.5967
▁ग्रि	-10.5985
▁पुंइसीतीके	-10.5998
▁सिमियोन	-10.5999
▁शेंताक्‍यी	-10.6
▁मिम्‍ताक्‍म	-10.6019
▁गेतामी	-10.6027
▁पिवो	-10.6029
▁तुइक्‍पाइक्‍मी	-10.6032
▁दाशा	-10.6038
▁पाइबपुकीम	-10.6039
ब्रेक्‍शो	-10.6041
▁ब्रेक्‍ब	-10.6059
▁बाक्‍नीसी	-10.6078
▁शिमी	-10.608
▁प्रोव़	-10.6094
▁पाइ	-10.6108
▁सदमे	-10.6165
▁ओव़मा	-10.6174
▁कोव़शो	-10.6183
▁वाशा	-10.6185
▁मगे	-10.6198
▁सोक्‍ती	-10.6214
▁मदुम्‍नी	-10.624
नस्‍कु	-10.6247
▁जाक्‍सा	-10.6248
▁नुप्‍शा	-10.627
▁मलाइब	-10.6272
▁तुइक्‍पाइक्‍ती	-10.6282
▁फ्रुक्‍पाइक्‍	-10.629
न्‍ने	-10.6296
▁मबाक्‍बा	-10.6319
ाता	-10.6334
▁टि	-10.6355
▁देंय	-10.6356
▁खल	-10.6364
▁बोरपाइक्‍	-10.6368
▁सिपाइ	-10.6371
▁ब्रोंइमा	-10.6385
▁ग्‍यार	-10.6387
▁बजार	-10.6398
▁योव़ङा	-10.6401
▁लांम	-10.6406
ल्‍शा	-10.6459
▁गाक्‍बपुकी	-10.6462
▁रुम्‍न	-10.6464
▁गेपुकीम	-10.6465
▁सी	-10.6467
कोरिन्‍थीपुकी	-10.6484
▁हेरर	-10.6506
▁बर्	-10.651
▁गाक्‍च	-10.6524
ीकी	-10.6528
▁मोश	-10.6536
▁सेंस	-10.6549
▁शेंस	-10.6549
प्‍ब	-10.656
ताक्‍स	-10.6565
▁बाक्‍तेक्‍मे	-10.6582
लोव़	-10.6619
▁ताइबपुकी	-10.6631
ोन	-10.6652
▁पिपपुकी	-10.6669
▁क्‍युक्‍	-10.669
▁कोंइदीन	-10.6711
▁मस	-10.6711
▁निस्‍स	-10.6715
▁जुक्‍श	-10.6715
ीने	-10.6717
▁ग्राती	-10.6721
▁दाक्‍	-10.6736
तीने	-10.6741
▁प्रोव़न	-10.6742
ोव़मे	-10.6749
▁थेरन	-10.6753
ोड	-10.6758
क्‍	-10.6761
▁फरिसीपुकीम	-10.6767
▁तूङमे	-10.6772
ोइक्‍तु	-10.6816
पांइसीशा	-10.6819
▁दोर	-10.6826
▁दाम	-10.6844
पाइक्‍नुङ	-10.6878
▁हो	-10.6881
▁ताइक्‍त	-10.6893
▁लेत्‍ता	-10.6918
▁ङाक्‍शो	-10.6933
ेल	-10.6947
▁गोम	-10.6948
्‍तेक्‍म	-10.696
▁फुल्‍लुम	-10.699
ज	-10.6992
▁पमु	-10.7006
▁जाक्‍दीम्‍म	-10.7025
ाक्‍स	-10.7026
दमे	-10.7037
िङ	-10.7047
रो	-10.705
▁पाइक्‍ती	-10.7052
िश्‍शो	-10.7063
रोक्‍शा	-10.708
▁चलेब	-10.7088
गेशो	-10.7089
▁बोस	-10.7093
▁इस्राएलीपुकी	-10.71
ोव़	-10.7106
वे	-10.7118
ाइल	-10.7127
▁चलेस	-10.7144
▁मचाप्‍बपुकी	-10.7156
▁भेडापुकी	-10.7188
▁दाक्‍बपुकी	-10.719
ोइश्‍शो	-10.719
▁बाक्‍स	-10.7198
▁मर	-10.7216
▁थित्‍नी	-10.7265
▁तूत	-10.7265
▁खाइक्‍पाइक्‍	-10.7296
पतो	-10.7307
▁आइक	-10.7317
क्‍कीन	-10.7331
‍स	-10.7345
सीङ	-10.7384
ओदें	-10.7388
रोइक्‍चा	-10.7388
▁मनु	-10.7388
ल्‍चा	-10.7398
▁जाक्‍नीम	-10.7402
न्‍त	-10.7407
खिं	-10.741
▁शु	-10.7414
आन	-10.7416
▁इप्‍	-10.7423
▁कपटीपुकी	-10.7429
▁मथोक्‍	-10.7435
▁पपाइक्‍	-10.7456
पाइक्‍तीनी	-10.747
▁ग्‍येरसीब	-10.7487
तीवी	-10.7498
▁शिं	-10.7506
▁लाक्‍ती	-10.7515
‍नीनी	-10.7527
▁पो	-10.7536
ममाइ	-10.7538
मोदेंशो	-10.7539
▁नाइक्‍पाइक्‍	-10.7539
पिप	-10.7543
▁रो	-10.7553
तो	-10.7559
▁नेक्‍	-10.7559
ग्‍यो	-10.7565
▁गु	-10.7567
▁सुम्‍	-10.7588
कोव़ङीन	-10.7588
▁राम्‍	-10.759
▁खि	-10.7593
पाइक्‍नन्‍नी	-10.7593
▁ओव़ब	-10.7594
मदुम्‍ब	-10.7615
क्‍तीके	-10.7622
▁ग्‍येरसीन	-10.7623
▁मग्‍याइक्‍त	-10.7631
▁रुप्‍त	-10.7634
▁तोक्‍त	-10.764
ओं	-10.7645
मुरपुकी	-10.7653
तस	-10.7661
तेको	-10.7668
▁मगेनुङ	-10.7669
▁मसुइक्‍नी	-10.7671
पाइय्‍यीनी	-10.7673
▁जाइबा	-10.7685
ाक्‍शो	-10.7685
▁तो	-10.7699
▁माल्‍ती	-10.7716
पाप्‍तु	-10.7719
▁कानुनम	-10.772
▁साइक्‍नीम	-10.7721
माल्‍थ	-10.7723
ुनु	-10.7736
▁सोइक्‍ताक्‍क	-10.7738
▁जच	-10.7738
मिनु	-10.7749
▁काले	-10.7772
▁रिक्‍च	-10.7784
▁गर	-10.7785
▁कोर्राम	-10.7787
▁गाक्‍न	-10.7792
लने	-10.7795
▁नोफाम	-10.7798
▁नित्‍	-10.7798
▁मिम्‍तीक	-10.78
▁मालीन	-10.7801
ौ	-10.7807
▁जाक्‍दीत्‍	-10.7808
शेक	-10.7809
▁गोल्‍गथा	-10.7818
▁जक्‍कै	-10.7818
▁जोल्‍फे	-10.7818
▁तिखीकस	-10.7818
▁थेलीने	-10.7818
▁प्रिस्‍कीला	-10.7818
▁लिस्‍त्रा	-10.7818
▁दरवार	-10.7818
▁पहाड	-10.7818
▁हन्‍नास	-10.7818
▁मशेंनन्‍नी	-10.7818
▁मताक्‍थु	-10.7818
▁मसेल्‍थु	-10.7818
▁ग्‍येरसेक्‍ल	-10.7818
▁मख्रुइक्‍थु	-10.7818
▁ङोंइ‍से	-10.7818
▁तुइक्‍पतो	-10.7819
▁ङोइक्‍पाइश्‍शा	-10.7819
▁लाइनय	-10.7819
▁फेश्‍शा	-10.7819
▁खोल्‍शा	-10.782
▁शेंदीकी	-10.782
▁ताइक्‍ताक्‍व	-10.7821
▁ग्‍येरसाक्‍व	-10.7821
▁गेम्‍तीमी	-10.7821
ाक्‍	-10.7821
▁लेत्‍नुङ	-10.7821
▁सोव़मेनु	-10.7821
▁पाइनेवे	-10.7821
▁ग्‍याप्‍तीनी	-10.7821
▁मशेंदक	-10.7821
▁दाक्‍नय	-10.7822
▁सुइक्‍तीवी	-10.7822
▁स्‍	-10.7822
▁सेल्‍मेक्‍ल	-10.7823
▁रुप्‍पाइश्‍शा	-10.7823
▁ब्रोंइतय	-10.7824
▁मुप्‍स	-10.7824
▁ग्‍यारशा	-10.7825
▁मतुइक्‍तु	-10.7825
▁ब्रेक्‍ताक्‍व	-10.7826
▁मशेंदीने	-10.7827
▁युक्‍शा	-10.7827
▁मलाइक्‍चा	-10.7827
▁राइब	-10.7828
▁थुल्‍शा	-10.7829
▁तुइक्‍पाइक्‍तु	-10.783
▁ब्रातेक्‍म	-10.7832
▁सेंपाइश्‍शा	-10.7832
▁खोइक्‍तु	-10.7832
▁कोंइताक्‍यी	-10.7832
▁तुप्‍मे	-10.7832
▁मिम्‍पाइक्‍नुङ	-10.7833
▁राप्‍पाइक्‍चा	-10.7833
▁कांसा	-10.7833
▁ममाल्‍द	-10.7834
▁मतवा	-10.7835
▁मसेल्‍ब	-10.7835
▁दुम्‍नीकी	-10.7836
▁ब्रेक्‍नुङ	-10.7837
▁मबिस्‍से	-10.7839
▁प्रिंशा	-10.784
▁मदुम्‍नुङ	-10.784
▁ब्‍वशा	-10.784
▁युक्‍	-10.7841
▁खेरशा	-10.7841
▁ब्रेक्‍तो	-10.7842
▁याक्‍शा	-10.7845
▁गाप्‍शा	-10.7846
▁जरमेसाक्‍व	-10.7846
▁हाबील	-10.7846
▁फाइक्‍ब	-10.7847
‍तीक	-10.7848
▁बोक्‍को	-10.7848
▁ब्रोंइनुङ	-10.7849
▁हेरशा	-10.785
▁बेक्‍तय	-10.785
▁दुप्‍शा	-10.7851
▁गारपाइक्‍चा	-10.7853
▁शेंसीने	-10.7855
▁थिम्‍तीके	-10.7856
▁थुम्‍चा	-10.7857
▁दाप्‍शा	-10.7862
▁पमुम्‍तेक्‍म	-10.7863
▁बोका	-10.7863
▁जवा	-10.7869
▁चढ़ेशा	-10.7871
▁चाम्‍सीब	-10.7874
▁लङानु	-10.7875
प्‍नीम	-10.7876
▁ब्रोंइनय	-10.7878
▁लाइक्‍तु	-10.7878
▁तुइक्‍पाइश्‍शा	-10.7884
▁मगेचा	-10.7885
▁मुइश्‍शा	-10.7885
▁जिम्‍तेक्‍म	-10.7885
▁पपाइश्‍शा	-10.7886
▁ताइक्‍चा	-10.7887
ोनीय	-10.7891
▁गायस	-10.7892
▁मतुइक्‍नीकी	-10.7893
▁लतीन	-10.7894
▁पोक्‍गा	-10.7895
▁सारा	-10.7896
▁ग्रुम्‍ब	-10.7905
▁सुइक्‍ता	-10.7911
▁लाइक्‍ब	-10.7914
▁दुम्‍नुङा	-10.7917
▁गेबपुकी	-10.7917
▁मजाक्‍दी	-10.7919
▁योल्‍ब	-10.792
▁मग्रू	-10.7921
▁ओशो	-10.7921
▁निस्‍से	-10.7922
▁गेनी	-10.793
▁प्रेक्‍कु	-10.793
▁कानुन	-10.7939
ाक्‍म	-10.794
▁मकोव़ब	-10.7942
आंम	-10.7942
▁तांइसीनीमी	-10.7949
▁बारपतीन	-10.7957
▁ममिम्‍ब	-10.796
▁लोत	-10.7966
बपुकी	-10.7968
▁सेल्‍ता	-10.7968
▁दुम्‍तीक	-10.7978
▁गारबा	-10.7978
▁पाइय्‍यीनी	-10.7992
▁ग्‍येरसम	-10.7992
▁नो	-10.7993
मीन	-10.8009
▁नेंपाइक्‍न	-10.8023
हा	-10.8024
टुना	-10.8033
▁मथिद	-10.8043
▁बोरपा	-10.8044
▁ताइक्‍ताक्‍म	-10.806
▁पाइक्‍	-10.8072
▁खा	-10.8075
पाइक्‍तामी	-10.8079
▁बाक्‍शोपुकी	-10.808
म्‍मेनु	-10.808
▁दाक्‍त	-10.809
हिंब	-10.8092
सम	-10.8093
▁हेल	-10.8105
▁वामा	-10.8111
▁चाक्‍गमे	-10.8113
▁फाराओ	-10.8114
▁कोक्‍केम	-10.8124
▁गाक्‍नीमी	-10.8124
▁मवोदु	-10.813
ुक्‍शा	-10.8139
ाक्‍दो	-10.8154
ल्‍फ	-10.8165
▁शेंद	-10.8167
ंज	-10.8174
▁नेंपाइक्‍मी	-10.8182
▁जाइनीमी	-10.8186
▁रवाम	-10.8187
ुंइसीचा	-10.8199
▁सो	-10.823
▁मन	-10.8239
▁मलेत्‍ता	-10.8239
▁मुना	-10.8253
▁इनार	-10.8255
▁मसाइक्‍	-10.8257
ुइश्‍शो	-10.8268
▁सोइक्‍ताक्‍ङमी	-10.8272
इश्‍शा	-10.8276
▁पतीकेम	-10.8278
ोला	-10.8278
▁जाक्‍म	-10.8282
डडा	-10.8284
▁खुम्‍सी	-10.8288
▁ब्रो	-10.8302
▁नङा	-10.8306
▁सेलो	-10.8309
थोलो	-10.831
ोंइ‍साक्‍क	-10.8316
▁गारोमी	-10.8316
▁ग्‍यो	-10.8322
▁जाक्‍दीन्‍न	-10.834
▁तेम्‍न	-10.8356
▁लम	-10.8357
▁ताक्‍गु	-10.8362
म्‍से	-10.8377
▁जाता	-10.8385
ोक्‍ब	-10.8407
▁नुप्‍ब	-10.8421
▁लाइबा	-10.8451
▁चिक्‍बीम	-10.8451
▁माल्‍नी	-10.8473
म्‍ब	-10.849
▁खेरमे	-10.8495
▁दुम्‍नीस	-10.8549
पाइक्‍मी	-10.8554
मस	-10.8573
▁दिम्‍	-10.8621
इनीम	-10.8629
▁ग्रुम्‍शो	-10.8655
▁एली	-10.8669
▁मपुंइसी	-10.8695
▁मुशा	-10.872
ीब	-10.872
▁कोंइतीके	-10.8732
▁केप्‍	-10.8776
क्‍थ	-10.8785
▁लेत्‍तीक	-10.8791
▁महि	-10.8812
▁जाइ	-10.8827
▁थाप्‍	-10.884
▁लेप्‍	-10.885
▁क्र	-10.8857
▁तुइक्‍पद	-10.8857
मोर	-10.8882
▁मपनी	-10.89
▁बिस्‍स	-10.8903
स्‍पे	-10.8954
▁मतुइक्‍त	-10.8962
▁लाइ	-10.8976
▁सेल्‍बा	-10.8991
▁कोल	-10.9013
‍त	-10.9038
▁पाइक्‍बाक्‍त	-10.906
▁गोम्‍तेक्‍म	-10.9085
▁हिक्‍तीक	-10.9087
▁थिन्‍न	-10.9098
▁देंतीक	-10.9134
▁तन	-10.9145
▁लेम्‍म	-10.9152
▁हिंम	-10.9157
▁वाइलपुकी	-10.9159
▁काना	-10.9178
▁खोइक्‍बपुकी	-10.9211
▁खोत	-10.9214
▁थुमा	-10.9218
▁एन	-10.9231
▁दोक्‍	-10.9259
▁थि‍	-10.931
इक्‍ताक्‍व	-10.9322
▁मखोत	-10.9329
ीशो	-10.9339
▁किप्‍	-10.9339
एके	-10.9388
▁ग्रात	-10.9409
क्‍सीशा	-10.9412
▁हेश्‍	-10.9413
ाव	-10.9501
ठेयब	-10.9505
▁पुंइस	-10.9528
तस्‍कु	-10.9537
▁सोइक्‍नन	-10.9539
▁मलेत्‍त	-10.954
म्‍शा	-10.9593
▁लेत्‍	-10.9602
स्‍त	-10.9613
▁ख्रु	-10.9636
ोव़ङमे	-10.9651
न्‍	-10.9662
ाइश्‍शा	-10.9696
▁ग्‍याइक्‍पाइक्‍	-10.9705
▁चुर	-10.9706
दुम्‍ब	-10.9709
ुइक्‍चा	-10.9724
त्री	-10.9726
▁इप्‍त	-10.9728
▁थेरश	-10.9732
बाक्‍त	-10.9744
▁फेक्‍पा	-10.9746
▁कुरश	-10.976
▁वोलपुकी	-10.9833
सीनु	-10.9835
श्‍येत	-10.9842
▁कल	-10.9867
▁क्‍याम्‍ब	-10.9878
ोक्‍शो	-10.9894
ाइक्‍पाइश्‍शा	-10.991
▁मगाक्‍	-10.9913
▁ब्‍वाक	-10.9924
▁ख्रेक्‍	-10.9936
▁साम	-10.998
दु	-10.9988
▁सोइक्‍ताक्‍म	-11.0001
▁ग्रूङ	-11.0017
▁पुंइसीन	-11.002
▁दोरन	-11.0021
▁सास	-11.0041
▁तुइक्‍पदमे	-11.0058
▁गुर	-11.0067
जोल	-11.0082
▁मखाइक्‍	-11.0085
▁टी	-11.0101
सिनाक्‍त	-11.0105
▁थेर	-11.0107
▁फ्र	-11.0112
सिजर	-11.0115
ब्‍यफ	-11.0118
▁योव़ब	-11.0135
▁ची	-11.014
‍तु	-11.0142
▁देंमु	-11.0152
जन	-11.0163
तीमी	-11.0186
▁कुरपा	-11.0187
‍मेनु	-11.0197
▁पुंइने	-11.0208
▁एल्‍	-11.0217
्‍चा	-11.0226
▁बेक्‍नीम	-11.0238
ुबु	-11.0244
▁साइक्‍तीक	-11.0246
▁ग्‍येरपाइक्‍	-11.0253
▁मतू	-11.0256
▁ठिट	-11.026
क्‍तीक	-11.0265
▁ग्रुंइद	-11.0284
▁फाल्‍तीक	-11.03
▁मरुप्‍मे	-11.0311
ेत्‍तीने	-11.0312
दुम्‍नीम	-11.0312
▁अलेकजेन्‍द्रीया	-11.0318
▁क्‍लौदीय	-11.0318
▁गमालीएल	-11.0318
▁गाब्रीएल	-11.0318
▁जौंले	-11.0318
▁ठाउं	-11.0318
▁थिआटीरा	-11.0318
▁दक्‍खिन	-11.0318
▁दियाबलस	-11.0318
▁निकोदेमस	-11.0318
▁पाम्‍फीलीया	-11.0318
▁पुब्‍लीयस	-11.0318
▁बिच्‍छी	-11.0318
▁बोआज	-11.0318
▁शाल्‍तीएल	-11.0318
▁सिल्‍वानस	-11.0318
▁कुंजे	-11.0318
▁गेरासीन	-11.0318
▁ममाल्‍ङल	-11.0318
▁यहोसु	-11.0318
▁साल्‍मोन	-11.0318
बाबेल	-11.0318
▁ओबेद	-11.0318
▁खाल्‍टा	-11.0318
▁जाक्‍दीय्‍य	-11.0318
▁तांइसाक्‍म	-11.0318
▁अबीयाह	-11.0318
▁तोक्‍गमे	-11.0318
ंग्र	-11.0318
▁लिडीया	-11.0318
▁मप्रेंथु	-11.0318
▁चबुल	-11.0318
▁मनुप्‍थु	-11.0319
▁कुइब	-11.0319
▁मुम्‍मुशा	-11.0319
▁मफांइसी	-11.0319
▁मसुइक्‍नुङ	-11.0319
▁राइनीनी	-11.0319
▁मजाइनीम	-11.0319
▁पेरगा	-11.0319
▁क्‍याल्‍नीम	-11.032
▁मनेंनीनी	-11.032
▁ममिम्‍नीनी	-11.032
▁ब्‍वाइनुङ	-11.032
▁बुटा	-11.032
▁कोव़खा	-11.032
▁पुंइसाक्‍ङ	-11.032
▁ग्‍याइक्‍तमे	-11.032
▁पाइनन्‍नी	-11.032
▁ग्‍यापीन	-11.0321
▁लाम्‍ताक्‍स	-11.0321
हिरथ	-11.0321
▁मख्रोइक्‍चा	-11.0321
ल्‍ट	-11.0321
▁बाक्‍कीसे	-11.0321
▁गाप्‍त	-11.0322
▁राप्‍पाइश्‍शा	-11.0322
▁मनेंनीम	-11.0323
▁लेत्‍ताक्‍म	-11.0323
▁लेस्‍सा	-11.0323
ुइक्‍थु	-11.0324
▁क्‍याल्‍शा	-11.0324
▁याक्‍सो	-11.0324
▁सोव़त	-11.0324
▁अरेनुङ	-11.0325
▁वोइक्‍नुङ	-11.0325
▁माल्‍तक	-11.0325
▁खाप्‍तु	-11.0325
▁ब्राइनीम	-11.0325
▁खेरबाक्‍माक्‍त	-11.0326
▁ब्रुप्‍शा	-11.0326
▁मलथु	-11.0326
▁चाक्‍को	-11.0326
▁माइक्‍तन्‍नी	-11.0327
▁थित्‍नीनी	-11.0328
▁खालपापुकी	-11.0328
▁प्रेक्‍शा	-11.0329
▁लेम्‍शा	-11.0329
▁रुप्‍तीनी	-11.0329
▁मिम्‍ताक्‍नी	-11.0329
▁मगारथु	-11.0329
▁साम्‍शा	-11.0331
▁प्राक्‍शा	-11.0331
▁दुम्‍नेवे	-11.0331
▁ब्रोंइनीनी	-11.0331
▁पुंइतीनी	-11.0331
▁साइक्‍तीनी	-11.0331
▁पुंइनीनु	-11.0332
▁मराक्‍ब	-11.0332
▁दिक्‍शा	-11.0332
▁तिम्‍शा	-11.0333
▁लेत्‍तो	-11.0333
▁ममाल्‍नय	-11.0333
▁माल्‍तीनी	-11.0334
▁पुंइसीनीकी	-11.0334
▁पाम्‍ताक्‍स	-11.0335
▁सापतीन	-11.0336
▁मरुप्‍नीम	-11.0336
▁पूर्ब	-11.0336
▁दाग्‍यु	-11.0337
▁बालाम	-11.0337
▁ताक्‍कीन	-11.0337
▁तिल्‍चा	-11.0338
्रो	-11.0338
▁खाप्‍शा	-11.0338
▁जरमेसीब	-11.0338
▁थाम्‍शा	-11.0339
▁मशेंचा	-11.0339
▁शेंदीने	-11.0339
▁प्रोंइनीनी	-11.0341
▁खोइक्‍ने	-11.0342
▁ओव़माक्‍त	-11.0343
्	-11.0345
ीयास	-11.0346
▁सेल्‍सीशा	-11.0346
▁लेयचा	-11.0346
▁देल्‍तीके	-11.0346
▁सापतीने	-11.0347
▁लाइतीनी	-11.0348
इच्‍	-11.0349
▁दाक्‍तमे	-11.0349
▁मचाप्‍थु	-11.0352
▁माइक्‍नुङमी	-11.0352
▁गाइक्‍ब	-11.0352
▁गाक्‍को	-11.0353
▁मिम्‍सीबा	-11.0353
केर	-11.0354
▁तबीता	-11.0355
▁मिलेटस	-11.0355
▁मदेनीन	-11.0357
▁बोक्‍कीन	-11.0357
▁बाक्‍नेवे	-11.0358
▁कोंइताक्‍म	-11.0358
▁दाक्‍मुय	-11.0358
▁मालीने	-11.0359
▁सोव़शा	-11.0361
▁फ्राशा	-11.0362
▁पपदा	-11.0362
▁गेतीकी	-11.0364
▁लेत्‍नीम	-11.0365
▁मनेंचा	-11.0368
‍तीके	-11.0371
▁फाल्‍चा	-11.0371
▁चाप्‍नेवे	-11.0375
▁फुल	-11.0379
▁थुइश्‍शो	-11.0379
▁सोइक्‍तीन	-11.0379
▁मओव़म	-11.038
चाप्‍नीकी	-11.0383
▁मपुंइसीशो	-11.0385
▁तुप्‍ब	-11.0386
▁कोव़ङा	-11.0392
क्‍युप्‍ब	-11.04
▁सेलल	-11.0401
▁सोल	-11.0401
▁लनीनु	-11.0402
▁गोल्‍शा	-11.0406
▁कनानी	-11.0408
ताक्‍यी	-11.0411
▁बेल्‍जीबुल	-11.0414
▁गेतन्‍नी	-11.0416
▁येस्‍से	-11.0418
▁लेप्‍ब	-11.0418
▁सियोन	-11.0418
▁मीमेनु	-11.0421
▁चाक्‍गा	-11.0426
▁बुक्‍तीके	-11.0427
▁याप्‍पाइश्‍श	-11.043
▁तेम्‍सी	-11.0431
▁नेंतु	-11.0431
▁बेथ	-11.0433
्‍तु	-11.0435
बार	-11.0437
▁टीबा	-11.0441
▁कोंइदीमी	-11.0442
▁तुइक्‍पाइक्‍नुङ	-11.0442
▁मपवा	-11.0443
▁नेंपा	-11.0447
▁सेल्‍बाक्‍त	-11.0448
▁रेप्‍ब	-11.045
▁शेंदीनी	-11.0456
▁बाला	-11.0458
▁प्रोंइता	-11.0458
▁सोइक्‍ताक्‍की	-11.0462
सरकार	-11.0462
▁आपो	-11.0464
▁नाक्‍तीम	-11.0466
▁मगारबा	-11.0469
▁मसाइक्‍चा	-11.0475
▁शेंसे	-11.0497
ेक्‍ल	-11.0502
लाटा	-11.0507
▁मजाक्‍दीप्‍ब	-11.0507
▁ब्‍वारा	-11.051
दमेक्‍ल	-11.0511
▁टीनीमी	-11.0511
▁मग	-11.0516
▁चिक्‍ता	-11.0516
▁मजचा	-11.0516
▁रोक्‍	-11.0518
▁मगेनुङमी	-11.052
थमान	-11.052
▁लाइक्‍मी	-11.053
▁गेयी	-11.0533
नेंसीब	-11.0534
▁मतूपाइक्‍	-11.0537
▁चोच	-11.0545
गेरा	-11.0545
▁ओल	-11.0552
▁ग्रीशो	-11.0555
▁साइक्‍तीमी	-11.0555
▁छि	-11.056
पांइसीनीम	-11.057
▁पुंइबा	-11.0592
▁ली	-11.0603
िम्‍शा	-11.0607
▁ब्रोंइत	-11.0617
▁प्रोंइन	-11.062
▁गेनीकी	-11.0621
सुम्‍सीचा	-11.0642
▁मब्राइब	-11.0648
क्‍तीनी	-11.065
▁मब्‍वाइब	-11.0664
▁मसुइश्‍शो	-11.0681
▁तुइक्‍पांइसी	-11.0687
▁शेंनुङमी	-11.069
▁मत्ती	-11.069
▁माइक्‍मीनु	-11.069
▁ग्‍युम्‍न	-11.0692
▁लीबा	-11.0693
▁लोक्‍बम	-11.0696
▁लाइनुङा	-11.0698
तन्‍नी	-11.0728
▁पपाइक्‍नुङ	-11.073
▁ब्रेक्‍प	-11.0736
इस	-11.0757
▁रिम्‍न	-11.0757
्‍यारश	-11.0766
लील	-11.0771
▁हाक्‍सी	-11.0782
▁थेक्‍तीक	-11.0804
मप्रोंइनन्‍नी	-11.0808
ैत	-11.0814
ेत्‍चा	-11.0825
▁मन्‍दीर	-11.0836
▁वांकु	-11.0842
▁मपुंइसे	-11.0843
▁कोरिन्‍थी	-11.0854
▁चाक्‍कीन	-11.0854
▁नेंन	-11.087
▁खाइक्‍	-11.0874
कपुकी	-11.0877
ाइतक	-11.0882
▁खोइक्‍नीम	-11.089
खी	-11.0892
िस्‍साक्‍व	-11.0894
▁सित्‍च	-11.0898
ास	-11.0921
▁अरेत	-11.0928
▁ग्रुम्‍च	-11.0928
▁सुप्‍शो	-11.0932
ाइनी	-11.0955
▁तुइक्‍प	-11.0961
साइक्‍पाइक्‍तीनी	-11.0963
▁मबिस्‍स	-11.097
▁सेल्‍तीक	-11.0973
कार	-11.0974
▁मसेलीन	-11.0997
▁वोद	-11.1032
▁साइक्‍पाइक्‍ब	-11.1045
▁ग्रेल्‍श	-11.1054
▁मलेत्‍तीन	-11.1068
्‍मे	-11.107
ुशा	-11.1086
▁थालम	-11.1097
ोव़थ	-11.1098
जे	-11.11
▁योव़ती	-11.1102
मीश	-11.1108
अब्राहाम	-11.1121
ल्‍ती	-11.1127
ुं	-11.1132
▁लेप्‍पाइक्‍	-11.1133
▁फार	-11.1138
▁पदु	-11.1181
▁फ्रुक्‍ग	-11.1195
▁राप्‍श	-11.1197
▁ओंइतीक	-11.1207
▁ओंइ	-11.1208
▁नस	-11.1212
▁थुम्‍श	-11.1213
▁ग्‍येरसाक्‍	-11.1216
▁माल	-11.1217
▁ले	-11.1232
▁खेरा	-11.1256
▁जाक्‍न	-11.1285
ंइ‍साक्‍व	-11.1295
▁चिक्‍ताक्‍म	-11.1298
▁पीर	-11.1307
▁रुप्‍‍न	-11.1313
सुदमे	-11.1319
▁रोइक्‍च	-11.1321
क्‍पाइश्‍शो	-11.1322
िशो	-11.1331
▁मदाक्‍	-11.1332
लेम	-11.1373
▁गेनीमी	-11.1379
जने	-11.1381
दसे	-11.1389
▁हिंनी	-11.1391
▁रुप्‍पद	-11.1406
म्‍मल	-11.143
▁याम	-11.146
▁ग्रुंइदमे	-11.1473
इक्‍ब	-11.1473
दाक्‍नुङ	-11.1475
तक	-11.1479
▁सेल	-11.1488
ेत्‍तीम्‍सी	-11.1489
▁शोक्‍	-11.1525
▁वोंइसी	-11.1528
▁जनामी	-11.155
▁हार	-11.1552
▁डोरी	-11.1564
▁नेंम	-11.1567
सीया	-11.1582
ोक	-11.1669
▁सोइक्‍ताक्‍स्‍क	-11.1675
ारीम	-11.175
ित	-11.1767
▁पढेन	-11.1783
लामी	-11.1789
▁मशिर	-11.1794
▁पुक्‍खीम	-11.1818
▁वोंइस	-11.184
लाह	-11.1846
तल	-11.186
▁तुइक्‍पाइक्‍त	-11.186
क्रे	-11.1873
ब्‍वाक्‍कु	-11.1878
ाक्‍क	-11.1889
ेयब	-11.1897
ीस	-11.1911
▁नेंपाइक्‍नीम	-11.193
▁चढ़ेबपुकीम	-11.1965
▁पाइश्‍शोपुकीमी	-11.1973
▁बारपद	-11.1989
▁तुंइ	-11.2005
ाप्‍ब	-11.2042
म्‍सी	-11.2064
क्‍ल	-11.2074
कोरिन्‍थी	-11.2131
▁डोरीम	-11.2144
▁बारपाइक्‍तीक	-11.216
▁योव़शोपुकी	-11.2161
▁खाल्‍पामी	-11.2171
▁जकरियाम	-11.2171
▁ममाल	-11.2174
▁कोंइद	-11.2204
▁पोक्‍बपुकी	-11.2205
▁प्रेक्‍न	-11.2255
दोक्‍नीम	-11.2286
▁प्रोंइमी	-11.2288
पढेशो	-11.232
्‍या	-11.2334
्‍ब	-11.2346
▁मतुइक्‍	-11.2349
▁कोंइदी	-11.2355
ेक्‍शो	-11.2369
ाइक्‍तामी	-11.2374
▁मशेंसी	-11.2377
▁मारेइम	-11.2389
पाइक्‍नुङमी	-11.2409
▁जाइबपुकी	-11.2421
▁बी	-11.2456
▁मचाप्‍नीमी	-11.2502
▁क्‍याम्‍तीक	-11.2503
▁हिम्‍	-11.2509
▁तुइक्‍तीकेम	-11.2512
कोव़	-11.2514
▁मजोक्‍	-11.2518
▁कुरनी	-11.252
▁मजाक्‍ङ	-11.2531
▁ब्रेत्‍त	-11.2549
▁जु	-11.2556
▁ङाक्‍कीन	-11.2556
स्‍स	-11.2561
▁दिप्‍	-11.2564
▁आलपुकीम	-11.2579
▁क्‍युक्‍सी	-11.2595
▁फेन्‍	-11.2618
डे	-11.2628
▁कोस	-11.2633
ङो	-11.2642
नीया	-11.2659
▁दुम्‍नीमी	-11.2668
गेय	-11.2669
▁ठिटापुकी	-11.2676
▁थी	-11.2703
ाइक्‍तेक्‍म	-11.2705
▁दुम्‍पाइक्‍	-11.2756
▁बाक्‍न	-11.2775
▁थाम्‍न	-11.2822
▁मपाइबपुकी	-11.283
▁मकुर	-11.2846
ाक्‍ङानु	-11.2863
▁मपक	-11.2863
▁बेक्‍मे	-11.2865
जाक्‍शो	-11.2871
▁लिड	-11.2872
ूब	-11.2905
▁राप्‍पाइक्‍	-11.2914
▁नाह	-11.2935
▁सरीङम	-11.2944
▁श्‍येतम	-11.2956
▁नित्‍तीकपुकी	-11.2973
▁ग्‍याइलीम	-11.3012
▁कोल्‍	-11.3016
दाक्‍शो	-11.3016
▁पपाइक्‍ती	-11.302
इक्‍ने	-11.3036
ुम्‍शो	-11.3036
ाइक्‍ने	-11.304
▁माल्‍ता	-11.3042
▁यिच	-11.3078
▁पांइस	-11.309
▁मप्रोंइनी	-11.3096
पाइक्‍थु	-11.3119
▁ब्रेक्‍स	-11.3123
क्‍नुङ	-11.3128
▁लाइबपुकी	-11.313
जचा	-11.3134
▁सुइक्‍बपुकीम	-11.3144
▁जिक्‍त	-11.315
म्‍स	-11.3165
▁हुइक्‍ताक्‍म	-11.3167
▁ब्रेत्‍ताक्‍	-11.3171
सहर	-11.3182
▁ब्रोव़ब	-11.3184
ारी	-11.3203
सावल	-11.3212
लङ	-11.3225
मेकेर	-11.3227
पत्रुस	-11.325
नीय	-11.3252
शिशी	-11.3261
▁जे	-11.3266
रू	-11.3284
ुप्‍शा	-11.3284
▁मकोव़	-11.3285
राज्‍य	-11.3297
यु	-11.3302
▁टु	-11.3318
मिक्‍च	-11.3327
नेक्‍था	-11.3331
▁मच	-11.3336
▁ततीके	-11.3341
लावो	-11.3343
▁मग्‍याम्‍	-11.3345
इस्राएल	-11.335
खा	-11.3362
▁ताइ	-11.3363
आइक्‍च	-11.3364
सरीङ	-11.3365
फुल्‍लु	-11.3368
▁बर्सम	-11.3385
▁ङोंइ	-11.3392
▁मसुइक्‍तीक	-11.3392
मरीयम	-11.3395
▁मतुइक्‍ता	-11.3398
रेयके	-11.3405
याकूब	-11.3409
ेरब	-11.3411
वोइश्‍शो	-11.3412
हुश	-11.3416
काबु	-11.3417
▁मवोद	-11.3419
मूर्ति	-11.3419
तरवार	-11.3428
होसन्‍ना	-11.3429
ाक्‍व	-11.3436
▁ख्रेक्‍ताक्‍	-11.3436
यहूदीया	-11.3438
ताक्‍गु	-11.3441
लाजरस	-11.3444
‍तेक्‍म	-11.345
▁क्‍याल्‍	-11.3453
आबी	-11.3454
▁योव़सी	-11.3462
▁कोव़त	-11.347
फश	-11.3475
जथ	-11.3479
दाक्‍तीने	-11.3486
िंचा	-11.3489
▁बोक्‍त	-11.349
▁मगेन	-11.3492
रप	-11.3506
▁मगेम	-11.3512
राह	-11.3519
▁प्रोंइती	-11.3528
▁हुम्‍	-11.3529
▁माइक्‍तीके	-11.3533
▁खाप्‍ता	-11.3537
▁क्‍या	-11.3545
तुंइ‍सीब	-11.3545
▁ग्रूबा	-11.3549
▁मतेक्‍	-11.3551
▁शोक्‍ब	-11.3553
▁पोक्‍नीम	-11.3559
डी	-11.3564
▁साबाक्‍मा	-11.3568
▁बुक्‍तीक	-11.3575
▁मपाम	-11.3578
▁तङ	-11.3596
ताइनेवे	-11.3598
▁तुंइ‍सी	-11.3602
▁माइक्‍नन	-11.3605
▁मात्‍था	-11.361
‍म	-11.3616
वोइक्‍नीम	-11.3619
▁बाक्‍नीक	-11.362
▁बुक्‍	-11.3621
‍ड	-11.3621
▁मगाक्‍ब	-11.3623
निस्‍सीन	-11.3625
▁तूनी	-11.3627
कल	-11.3635
क्रा	-11.3636
▁मिम्‍सीब	-11.364
▁मलेत्‍	-11.3647
▁ओव़बा	-11.3648
▁डियो	-11.3651
जबूलून	-11.3651
▁अगाबस	-11.3651
▁अरीयोपागस	-11.3651
▁अरीस्‍तारकस	-11.3651
▁इजेबेल	-11.3651
▁इपाफ्रास	-11.3651
▁इपाफ्रोडीटस	-11.3651
▁उत्तर	-11.3651
▁ओश्‍येर	-11.3651
▁गाल्‍लीयो	-11.3651
▁डेकापोलीस	-11.3651
▁नहशोन	-11.3651
▁नाक्‍चुक	-11.3651
▁पोन्‍टस	-11.3651
▁फ्रिगीया	-11.3651
▁बेक्‍चांइतय	-11.3651
▁भानीज	-11.3651
▁मसोव़थु	-11.3651
▁येकोन्‍याह	-11.3651
▁हेस्रोन	-11.3651
▁डेमास	-11.3651
▁सारडीस	-11.3651
▁मेल्‍की	-11.3651
▁पौना	-11.3651
▁सन्‍दोस	-11.3651
▁हेरमेस	-11.3651
▁महिरथु	-11.3651
▁मफेर	-11.3651
▁एसाव	-11.3651
▁तुइश्‍‍शा	-11.3651
▁अलेकज	-11.3651
▁गाग्री	-11.3651
▁ममाल्‍नेवे	-11.3651
ंगुम	-11.3651
▁दिंसेनु	-11.3651
▁ग्‍याइक्‍ताक्‍म	-11.3651
▁प्रेंदीनी	-11.3651
▁तिबेरीय	-11.3652
▁मुकुट	-11.3652
▁कोल्‍पाइक्‍ब	-11.3652
▁मब्रेक्‍नुङ	-11.3652
▁मख्रोइक्‍थु	-11.3652
▁साम्‍तु	-11.3652
▁ममाल्‍नुङ	-11.3652
▁बारपतो	-11.3652
▁निकोला	-11.3652
▁मदेंङ	-11.3652
▁मसेंसीब	-11.3652
▁दु‍मे	-11.3652
▁मग्रुंइथु	-11.3652
▁मतिल्‍थु	-11.3653
▁लिक्‍शा	-11.3653
▁मतूनुङ	-11.3653
▁मजाम्‍थु	-11.3653
▁थाप्‍नुङ	-11.3653
▁मजाक्‍थु	-11.3653
▁मरुबु	-11.3653
▁मजाप्‍ब	-11.3653
य्‍यीमी	-11.3654
▁पाइतस्‍कु	-11.3654
▁जाइनीकी	-11.3654
▁यासोन	-11.3654
▁थिवल	-11.3654
▁जाक्‍दीत्‍नुङ	-11.3654
▁ओव़दीश्‍श	-11.3654
▁मचुर	-11.3655
▁तिल्‍नीम	-11.3655
▁प्रोंइयीकी	-11.3655
▁चोक्‍पाइश्‍शा	-11.3656
▁मरुप्‍नीसी	-11.3656
▁दिल्‍शा	-11.3656
▁हिरदमे	-11.3656
▁कनान	-11.3656
▁योसेस	-11.3656
▁प्रेंशा	-11.3656
▁मथित्‍नीनी	-11.3657
▁मनुप्‍ब	-11.3657
▁नेंपाइक्‍नीकी	-11.3657
▁तिक्‍शा	-11.3657
▁चाक्‍बा	-11.3657
▁जाक्‍चाप्‍तु	-11.3658
▁अस्‍स	-11.3658
▁खोइक्‍पाइक्‍नीम	-11.3658
▁मब्रथु	-11.3658
▁महिंनीम	-11.3658
▁मजाम्‍ब	-11.3658
▁तांइसीनीनी	-11.3658
▁लोटा	-11.3658
▁ग्रुंइपांइसीचा	-11.3658
▁मलीथु	-11.3658
▁फिक्‍शा	-11.3659
▁ग्‍येरसमल	-11.3659
▁जारशा	-11.3659
▁ब्रुइश्‍शा	-11.366
▁गारपाइश्‍शा	-11.366
▁फ्रुक्‍तु	-11.366
▁ग्‍येरसीनीनी	-11.366
▁वोइक्‍तीनी	-11.366
▁खेरतु	-11.366
▁सेंपाइक्‍ब	-11.3661
▁दिंशा	-11.3661
▁मपीब	-11.3661
▁फिक्‍ब	-11.3661
▁ग्रुंइदीने	-11.3662
▁मचाप्‍नय	-11.3662
▁प्रोक्‍तेक्‍म	-11.3663
▁हन	-11.3663
▁मदुम्‍नीकी	-11.3663
▁प्रोंइपाइश्‍शा	-11.3663
▁खेरतीक	-11.3663
▁मतनी	-11.3664
▁चोक्‍पाइश्‍शो	-11.3664
▁थीप	-11.3665
▁निप्‍पाइश्‍शा	-11.3665
▁मशेंदो	-11.3666
▁चाक्‍ता	-11.3667
▁तूनुङ	-11.3667
▁सुइक्‍तय	-11.3668
▁अल्‍से	-11.3668
▁थियी	-11.3669
▁ब्रेत्‍तीनी	-11.3669
▁खाइक्‍पाइश्‍शो	-11.3669
▁चाइमी	-11.367
▁तपांइसीशा	-11.367
▁मगेनीनी	-11.3671
▁मटिनी	-11.3671
▁पुंइसाक्‍क	-11.3671
▁राप्‍तेक्‍म	-11.3671
▁मतनीनु	-11.3671
▁मबाक्‍ती	-11.3672
▁ममानेचा	-11.3672
▁पुंइनीकी	-11.3672
▁सोइक्‍ताक्‍यीनी	-11.3674
▁ममिम्‍चा	-11.3674
▁प्रिंदीन	-11.3675
▁माल्‍नीकी	-11.3675
▁बेक्‍नुङ	-11.3675
▁माल्‍तु	-11.3676
▁सेसीन	-11.3677
▁मबाक्‍नुङ	-11.3678
▁मनसी	-11.3678
▁मदेंचा	-11.3678
▁साबाक्‍तेक्‍म	-11.3678
▁ग्‍येरसाक्‍म	-11.3678
▁गारनीसी	-11.368
▁हिम्‍शा	-11.368
▁गारपाइक्‍ब	-11.3681
▁शेंनेवे	-11.3682
▁मतीसे	-11.3682
▁पालाम	-11.3683
स्‍तस	-11.3683
▁पुक्‍ग	-11.3684
▁मनाक्‍तीन	-11.3684
▁कोव़नुङ	-11.3685
▁हुइश्‍शो	-11.3685
▁जपाइश्‍शा	-11.3685
▁थुम्‍ता	-11.3687
▁हिम्‍से	-11.3689
▁बेरशा	-11.3691
▁जरमेतीके	-11.3691
▁पोलाम	-11.3691
▁राक्‍शा	-11.3692
▁साइक्‍नीनी	-11.3692
▁कोव़ङो	-11.3693
▁खेरनुङ	-11.3694
▁पुंइनीनी	-11.3697
▁तवी	-11.3698
▁सुइक्‍नेवे	-11.3698
▁पमुचा	-11.3698
जन्‍तीपुकी	-11.3698
▁फोनीसीया	-11.3704
▁फिलेमोन	-11.3704
▁गेतन	-11.3705
ूस	-11.3706
▁ओव़नुङ	-11.3709
▁रुप्‍तेक्‍म	-11.3709
▁पुनो	-11.371
▁सेल्‍तन	-11.3712
▁दाक्‍तु	-11.3713
▁जिक	-11.3713
▁चढ़ेव	-11.3713
▁भोल	-11.3714
▁पाइबाक्‍तीनी	-11.3714
फीम	-11.3715
▁मदुम्‍क	-11.3715
▁गाक्‍तक	-11.3717
▁किप्‍शा	-11.3717
▁ताइक्‍ब	-11.3718
▁किताबम	-11.3719
त्‍चा	-11.3719
▁कोंइनन	-11.3719
▁कोव़नीम	-11.3721
▁हिरसमा	-11.3722
▁जरमेसेनु	-11.3722
दीया	-11.3723
▁पिसी	-11.3723
पुंइनुङ	-11.3724
▁ब्रेक्‍ता	-11.3727
ाक्‍तीनी	-11.373
थिंसीब	-11.373
ोइक्‍चा	-11.373
▁जीब	-11.373
▁पमुमानु	-11.3731
▁मबाक्‍नीनी	-11.3731
▁गेम्‍सी	-11.3735
टे	-11.3735
▁कोंइदानु	-11.3735
▁खुप्‍तमे	-11.3735
▁मइप्‍	-11.3735
▁कोर्रा	-11.3737
िन	-11.3738
▁गेयील	-11.3741
▁दाक्‍मुतीके	-11.3742
▁नेंबाक्‍तेक्‍म	-11.3742
▁ब्रुम्‍मा	-11.3742
स्‍कुनु	-11.3747
▁जाक्‍तीनी	-11.3748
▁क्‍येशा	-11.3748
सीन	-11.3748
▁इप्‍चा	-11.3751
▁यिने	-11.3755
ख्रोइक्‍ती	-11.3756
पोक्‍थ	-11.3759
▁लीनीम	-11.3762
▁माइक्‍तक	-11.3762
▁कोव़ङु	-11.3765
▁दाइक्‍ब	-11.3765
▁ग्‍येरसो	-11.3767
▁नेंपदमे	-11.3771
क्‍बाक्‍मा	-11.3775
▁लतीने	-11.3779
्‍टस	-11.3782
म्‍तीमी	-11.3788
▁ग्‍युर	-11.3789
इदी	-11.379
▁तशोपुकी	-11.3794
लिसीयस	-11.3795
▁मलचा	-11.3795
▁शोक्‍बमी	-11.38
▁तुप्‍ती	-11.3805
▁दिं	-11.3806
▁थोक्‍श	-11.3809
▁ममिम्‍त	-11.381
▁बेक्‍नीमी	-11.382
कुम	-11.382
▁दोक	-11.3827
यूहन्‍नामी	-11.3829
▁काइन	-11.3832
▁ततीक	-11.3833
▁ङाक्‍	-11.3841
▁प्रोंइथ	-11.3843
▁हिरदीन	-11.3845
म्‍सीशा	-11.3847
‍य	-11.3849
▁प्रोंइतीमी	-11.385
▁गिल्‍मी	-11.3852
तोन	-11.3853
▁कोव़क	-11.3855
▁प्रोंइयी	-11.3869
▁एनो	-11.387
▁मलाप्‍	-11.387
▁पाइबाक्‍तेक्‍म	-11.3873
▁मचाप्‍नुङा	-11.3874
▁इप्‍पाइश्‍श	-11.3875
▁होसन्‍ना	-11.3884
▁मपवी	-11.3885
पोक्‍नीकी	-11.3887
▁ग्रेल्‍	-11.3887
▁मङाक्‍नी	-11.3891
ठी	-11.3891
सीचा	-11.3897
▁कोंइदीनी	-11.3898
क्‍नीकी	-11.3903
▁योव़ता	-11.3913
इक्‍तीमी	-11.3926
▁आफपुकी	-11.3941
चाप्‍नस्‍कु	-11.3942
▁मतुइक्‍ती	-11.3946
▁सुंइ‍सी	-11.3948
ीनु	-11.3949
▁जाक्‍तक	-11.3951
▁क्‍योरचा	-11.396
▁सोइक्‍तानु	-11.3965
ेनु	-11.3968
▁पाइश्‍शोपुकी	-11.3971
▁मतीने	-11.399
रीम	-11.3997
▁पीनीम	-11.3998
ोक्‍चा	-11.4013
▁नाइक्‍	-11.4013
▁मिम्‍बा	-11.4036
▁नेंतेक्‍म	-11.4038
▁दी	-11.4047
▁दुम्‍‍ब	-11.4052
नवे	-11.406
▁पुक्‍तीक	-11.4063
▁गोवानु	-11.4075
देंब	-11.4075
क्‍ये	-11.4079
▁क्‍याल्‍ब	-11.4085
▁फेर	-11.4089
▁गारनीम	-11.4111
▁निश्‍श	-11.4126
▁नाक्‍ब	-11.4149
स्‍सी	-11.4175
त्‍तीय	-11.418
▁मजाम्‍	-11.4181
▁सुती	-11.4182
▁अल्‍स	-11.4182
▁मफ्राद	-11.4192
▁रुम्‍सीबा	-11.4193
ीनीनी	-11.4197
▁हिरसे	-11.421
▁चूम	-11.4211
▁शेंबाक्‍त	-11.422
▁अधिकारम	-11.4232
ेम्‍मुइनीम	-11.4237
▁हेरोदम	-11.4251
▁दाक्‍ताक्‍म	-11.4252
्द	-11.4252
फ्राचा	-11.4252
गेतीनी	-11.4254
▁गोव़	-11.4269
▁ढ	-11.4293
▁कालेमी	-11.4295
ाक्‍ने	-11.431
▁बर	-11.4317
ित्‍थ	-11.4321
ाक्‍सा	-11.4329
▁अरकी	-11.4331
▁रुप्‍नीम	-11.4334
▁वोइ	-11.4335
▁चिक्‍तमे	-11.434
▁तुइक्‍पतीन	-11.4346
▁ये	-11.4373
▁हुइक्‍ताक्‍	-11.438
ोक्‍नीम	-11.4381
▁मबिस्‍साक्‍	-11.4397
तुइक्‍पाइक्‍चा	-11.4421
इतीनी	-11.4422
▁सोव़ब	-11.4427
▁हाम्‍	-11.4431
तर	-11.4435
▁मारम	-11.4441
▁ग्‍याम	-11.4447
▁मथिङ	-11.4447
ल्‍नीम	-11.445
▁ख्रुइक्‍न	-11.4463
कीम	-11.447
▁सेल्‍नी	-11.4477
ाइक्‍पाइक्‍नीम	-11.448
▁पुंइदी	-11.4483
▁मिम्‍नीमी	-11.4483
्रेक्‍ताक्‍स्‍कु	-11.449
▁सोइक्‍तु	-11.4497
▁देल्‍शोपुकी	-11.4503
प्‍पाइक्‍ब	-11.4505
▁निक्‍	-11.4509
▁ग्रूमे	-11.4511
▁नेंनीमी	-11.4514
▁मगेमी	-11.4517
▁लाइनीमी	-11.4521
▁तुइक्‍तीनी	-11.4528
▁मप्रोंइनीक	-11.4536
▁वोइक्‍न	-11.4538
▁मानेश	-11.4538
▁शुरम	-11.4538
ित्‍त	-11.4548
▁मबाक्‍नीमी	-11.4552
▁तेक्‍ग	-11.4559
▁क्‍याम्‍न	-11.4566
▁ममिम्‍नीम	-11.4575
▁फलो	-11.4578
म्‍मीन	-11.4588
▁फिला	-11.4599
▁नेंबा	-11.4611
जामेक्‍ल	-11.4614
▁योल्‍	-11.462
्राक	-11.4624
▁शोक्‍ग	-11.4627
मि	-11.4636
त्‍त	-11.4658
▁ममालीन	-11.4665
▁गाक्‍तीके	-11.4679
न्‍या	-11.4682
प्‍तेक्‍म	-11.4703
▁मसुइक्‍बा	-11.4711
इक्‍थ	-11.4713
▁सोप	-11.4716
▁हिंन	-11.4718
▁ख्रोत	-11.4729
▁मचाप्‍बा	-11.4735
क्‍पदा	-11.4742
▁हिंतीके	-11.4748
▁गिल्‍सीश	-11.4754
▁गोठलापुकी	-11.4756
▁लुस	-11.476
▁साइक्‍तीके	-11.476
▁ग्रुंइन	-11.4762
▁बारप	-11.4768
▁गारपाइक्‍त	-11.4782
फु	-11.4795
▁गाक्‍म	-11.483
▁पती	-11.4838
▁निस्‍साक्‍	-11.4847
▁गोइब	-11.4859
▁ख्रुम	-11.4877
ब्रेक्‍तु	-11.489
▁खाल्‍पीपुकी	-11.4897
दुम्‍नय	-11.4898
▁लू	-11.4905
पदुमी	-11.4927
ाप्‍तीवी	-11.4963
▁हेम्‍	-11.4977
▁प्रोंइसी	-11.4996
▁नेंपाइक्‍ता	-11.4998
हाल	-11.4998
‍सी	-11.5005
▁साम्‍	-11.5008
▁मसोइक्‍ती	-11.5026
▁सुंइ‍सीब	-11.5031
▁मयिम	-11.5048
पाता	-11.5048
ाल	-11.5052
▁फा	-11.506
ाम्‍तेक्‍म	-11.5065
▁मनुम	-11.5066
▁तुइक्‍न	-11.5072
तीसे	-11.5087
▁सापांइस	-11.5094
▁रिक्‍	-11.5097
▁प्रोंइतीके	-11.51
▁दुम्‍ताक्‍स	-11.5117
▁मप्रें	-11.5121
इक्‍नीनी	-11.5136
▁वाल्‍	-11.5154
▁जोक्‍ग	-11.5157
▁देंनुङा	-11.5158
रून	-11.5164
▁याक्‍सी	-11.5169
लीम	-11.5184
▁शेंबपुकीम	-11.52
▁मदो	-11.5233
मिम्‍शो	-11.5234
▁क्‍येटमी	-11.5269
▁ग्‍ये	-11.5278
▁मबोर	-11.5281
▁मनुमा	-11.5297
▁मब्राम	-11.5318
▁ग्रूम	-11.5347
▁ख्रेक्‍तीक	-11.5368
्‍फा	-11.5389
्‍की	-11.5413
▁गाक्‍मे	-11.5416
पाइ‍नुङ	-11.5418
▁ओव़नी	-11.5458
▁मपुंइसीनीम	-11.546
क्‍नेवे	-11.5467
पीनुङ	-11.5491
▁योक्‍ब	-11.5503
▁रल	-11.5513
म्‍तेक्‍मे	-11.5539
▁पाइनुङा	-11.5541
ंइसीब	-11.5541
▁यिश	-11.5545
▁दुम्‍तीकेमी	-11.5555
▁तुइक्‍पाइ	-11.5613
▁बाक्‍शोनु	-11.5638
▁लिब	-11.5645
क्‍पाइश्‍शा	-11.5648
्‍	-11.5651
▁फाल्‍ब	-11.5656
▁एल	-11.5661
▁तून	-11.5664
ेडा	-11.5667
▁थो	-11.5671
ंइशो	-11.5736
्‍सी	-11.5818
ुम्‍तेक्‍म	-11.5823
रुप्‍तक	-11.5828
▁मग्रुम	-11.5832
ब्रा	-11.5834
▁कुचु	-11.5836
रशा	-11.5843
▁ङोइक्‍बपुकी	-11.5855
▁प्रें	-11.5868
समल	-11.5895
▁ताम्‍स	-11.5905
▁लेत्‍ती	-11.591
ुम्‍शा	-11.5926
▁हिंबपुकी	-11.5934
▁चोक्‍पाइक्‍ब	-11.5934
▁चढ़ेनी	-11.5944
▁राम्‍सी	-11.5962
▁मग्रुम्‍	-11.5962
▁क्‍	-11.5994
▁जोइ	-11.5995
शीम	-11.6
ुङ	-11.6001
्रीशो	-11.6027
▁ताप्‍ब	-11.6039
▁थाप्‍ती	-11.6056
ंस	-11.6057
लीनीम	-11.6079
▁तोंइ‍सी	-11.6097
▁मजि	-11.6098
▁मग्‍येर	-11.6117
क्‍तीमी	-11.6122
इय्‍‍यीनी	-11.6126
▁देंशोमी	-11.6126
▁क्‍येप्‍	-11.6139
▁पिती	-11.6142
▁जय	-11.6157
ेंशो	-11.6171
्रेप्‍ब	-11.6192
▁दुम्‍शोमी	-11.621
्‍ने	-11.6221
▁चोव़मे	-11.6241
योन	-11.6276
पांइसीशो	-11.6286
ेल्‍शो	-11.6294
▁वोइक्‍नी	-11.6301
ेटी	-11.6318
चावानु	-11.632
योआन	-11.6325
▁मबाक्‍माक्‍त	-11.6328
फरिसी	-11.6334
▁फांइसी	-11.634
्रेस	-11.6341
ीको	-11.6343
▁मसुद	-11.6351
▁नेंनु	-11.6354
थिदमे	-11.638
क्‍ची	-11.6382
व़चा	-11.6391
ारान	-11.6401
▁जाक्‍दीत्‍न	-11.6417
▁प्रोक्‍ब	-11.644
▁मचाप्‍क	-11.6463
्‍ला	-11.6466
▁कान	-11.6522
▁खोल्‍	-11.6528
▁ममिम्‍	-11.6529
▁माइक्‍	-11.6537
न्‍स	-11.6539
▁बारब	-11.6545
▁ङ	-11.6558
‍पाइक्‍ब	-11.6563
प्रोंइय	-11.6568
क्‍नी	-11.6605
▁ग्रुंइदी	-11.6607
▁तुम्‍मु	-11.6612
ांइच	-11.6636
शोक्‍शो	-11.6643
्‍बा	-11.6655
▁मदाक्‍त	-11.6656
▁मब	-11.667
रेशो	-11.6693
▁शोक्‍नी	-11.6716
ताक्‍ङमी	-11.6724
बेक्‍म	-11.6729
ंमान	-11.675
▁मको	-11.676
तीयस	-11.677
▁ताक्‍	-11.677
ोनी	-11.6771
▁ख्रोइक्‍त	-11.6771
▁मसोइक्‍त	-11.6773
▁ममिम्‍सी	-11.6797
▁माल्	-11.6813
▁बजारम	-11.6818
▁सम्‍	-11.6828
▁चाप्‍नी	-11.6828
▁दाइ	-11.6858
ेप्‍शा	-11.6864
▁फ्रुक्‍त	-11.6906
▁रुप्‍‍नी	-11.6914
▁मसि	-11.6927
▁मदोक्‍	-11.6951
▁हिंनीम	-11.6975
ाम्‍सीशा	-11.6976
मु	-11.6979
▁प्रेक्‍त	-11.6989
▁वोइक्‍ती	-11.6999
▁मओव़	-11.7002
▁शेंदीन	-11.7002
▁खेरन	-11.7002
▁जरमेश	-11.7011
▁रिक्‍त	-11.7036
्‍याइक्‍पाइश्‍शा	-11.7066
ंत	-11.7067
▁चढ़ेमे	-11.708
▁जिप्‍	-11.709
ंसी	-11.7097
माल	-11.7112
ीपुकी	-11.7116
▁मपुंइस	-11.7125
▁मीन	-11.7128
▁ग्‍याइक्‍पद	-11.7139
पेन	-11.7147
‍पाइश्‍शा	-11.718
पाइक्‍	-11.7199
▁प्रिंताक्‍	-11.7208
▁बाक्‍च	-11.7208
ाओ	-11.7238
त्र	-11.7261
▁थोक्‍सी	-11.7264
ल्‍तेक्‍म	-11.7287
▁साइक्‍ती	-11.7288
मोस	-11.7302
गाक्‍बाक्‍तेक्‍म	-11.731
समी	-11.7324
▁सोस	-11.7337
▁दुम्	-11.7342
▁दिप्‍श	-11.7355
▁बिथ	-11.7357
पुकीम	-11.7363
माल्‍शो	-11.7384
▁दाक्‍मु	-11.7386
ेरा	-11.7401
दाक्‍नीनी	-11.7412
▁मीशेम	-11.7448
▁ग्रीत	-11.7454
्‍य	-11.7474
इत	-11.7482
▁वाक्‍श	-11.7508
▁सिन्‍	-11.7513
▁पियाम	-11.7542
▁मब्रोंइ	-11.7551
▁मखोइक्‍ब	-11.7556
▁रोक्‍स	-11.7568
▁रस	-11.7579
▁मजिक्‍	-11.7593
प्रोंइनीम	-11.7602
क्‍ना	-11.7604
▁हुइक्‍	-11.7614
▁थुल	-11.7619
ताक्‍नी	-11.762
ाइक्‍पाइक्‍तीनी	-11.7626
▁मटीबपुकी	-11.7631
▁लेयङ	-11.7633
ोपुकीमी	-11.7641
▁सेक्‍च	-11.7651
▁मीशा	-11.7653
▁बि	-11.7658
▁सेल्‍नन	-11.766
▁चोक्‍पाइक्‍	-11.7663
▁मपाम्‍स	-11.7667
▁तस	-11.7668
▁चाक्‍दीश्‍श	-11.7676
▁ततीकेम	-11.7692
▁खुम	-11.7699
य्‍य	-11.7702
▁बाक्‍बपुकीम	-11.7733
▁हेल्‍श	-11.7734
▁अब्राहामम	-11.776
निक्‍शी	-11.7772
▁होव़पपुकी	-11.7782
शोमी	-11.7787
नुङा	-11.7788
्‍लो	-11.7792
▁दोरब	-11.7794
िसा	-11.7809
साइक्‍चा	-11.782
▁ताम	-11.7827
▁गाक्‍बाक्‍मा	-11.7855
बाक्‍तीनी	-11.7856
रब्‍ब	-11.7861
िम्‍सीशा	-11.7873
▁बाप्‍	-11.788
▁मनाइक्‍	-11.788
▁चाक्‍की	-11.788
मारेइ	-11.7885
कीला	-11.7901
▁तुइक्‍पाइक्‍ने	-11.791
गेवा	-11.791
▁मदु	-11.7924
▁दमस्‍कसम	-11.7941
ोंइ‍सीशा	-11.7946
▁गोल्‍	-11.7953
▁साइक्‍न	-11.7965
▁मबे	-11.7967
दुम्‍त	-11.797
ताक्‍से	-11.7972
▁बाम्‍मा	-11.7991
▁याक्‍स	-11.8002
▁हिरपा	-11.8018
म्‍सीशो	-11.8021
सेनु	-11.8022
ग्‍या	-11.8041
▁ग्‍येरन	-11.8042
वामी	-11.8044
▁चिठीम	-11.8082
▁सिप्‍बा	-11.8083
▁समी	-11.8087
‍बाक्‍माक्‍त	-11.8109
▁थांइ	-11.8135
आफ	-11.8142
ाइक्‍थ	-11.8155
‍यीनी	-11.8164
▁क्रि	-11.8165
जोक्‍ब	-11.8172
▁मसा	-11.8174
▁माल्‍त	-11.8175
▁कोव़य	-11.8179
▁पर	-11.8188
▁राप्‍त	-11.8193
▁मनें	-11.8208
▁बारपदमे	-11.821
▁मसुम्‍सी	-11.821
‍थु	-11.822
वोंइश	-11.8231
लेंशा	-11.8238
क्राप्‍	-11.8239
▁खुइपुकी	-11.8259
साइक्‍नुङ	-11.826
▁देंका	-11.8265
क्‍येट	-11.8266
▁पपाइक्‍बा	-11.8269
अरु	-11.8276
▁हिउंदम	-11.828
▁मदाक्‍तीन	-11.8284
▁बोरपाइ	-11.8286
मुइनीम	-11.8293
मुरुमी	-11.8303
ब्रोंइशा	-11.8307
दोस	-11.832
क्‍पाइक्‍चा	-11.8326
▁चोक्‍पद	-11.833
बर्स	-11.8343
गालील	-11.8358
डोंगा	-11.8364
ङग	-11.838
७	-11.8385
▁की	-11.8385
आपो	-11.8387
गार	-11.8388
▁ख्रि	-11.8396
▁मसेंस	-11.84
अङ	-11.8401
▁पांइसीन	-11.8402
म्‍ताक्‍व	-11.8402
दाक्‍नन्‍नी	-11.8408
सिलोआ	-11.8409
दीसा	-11.8411
▁जन्‍तुम	-11.8418
▁चाडम	-11.8425
मतुइक्‍नुङ	-11.8426
सियोन	-11.8428
ाम्‍चा	-11.8432
इच्‍ची	-11.8434
येस्‍से	-11.8434
ग्‍युम्‍ले	-11.8435
बेल्‍जीबुल	-11.8435
▁बेक्‍तीकेम	-11.8436
इसहाक	-11.8438
मूर्ख	-11.8438
मतुइक्‍नीकी	-11.8439
बेबीलोन	-11.844
िल	-11.8441
आपोल्‍लोस	-11.8441
गायस	-11.8444
▁दाप्‍	-11.8444
पिने	-11.8445
ंइ‍सीब	-11.8447
आमेन	-11.8449
निस्‍सीने	-11.845
मपावो	-11.8451
▁पोक्‍तीक	-11.8457
▁क्‍याइश्‍	-11.8461
▁कालेम	-11.8466
‍ल	-11.8467
▁गेथ	-11.8469
ेनेस	-11.8474
बाक्‍नी	-11.8483
्‍तो	-11.8487
ाली	-11.8488
जात	-11.8489
लेग	-11.849
▁लाइक	-11.8495
सुंइ‍सीब	-11.8496
पुनीन	-11.8497
चाम्‍सीब	-11.8498
▁लीत	-11.8505
शेंनीकी	-11.851
नाक्‍दो	-11.8516
पाइक्‍तीक	-11.8527
राज	-11.8532
जाक्‍चा	-11.8532
▁ग्‍याप्‍मे	-11.8533
▁मटीनीम	-11.8533
्‍बु	-11.8535
नेंचा	-11.8537
्‍ज	-11.8542
शेंदन्‍नी	-11.855
▁दाप्‍तीक	-11.8553
▁गाक्‍स	-11.8555
▁मबाक्‍नी	-11.8557
▁सुइक्‍नी	-11.8559
▁फ्रुक्‍	-11.8578
िम्‍तो	-11.8595
लेप्‍ब	-11.8597
गेनीम	-11.8602
दुम्‍तीके	-11.8604
▁लेश्‍	-11.8609
▁मतांइसे	-11.8615
सहे	-11.8616
▁साती	-11.8623
▁चढे़	-11.863
महिनी	-11.8633
पोलीस	-11.8634
▁मप्रोंइनन	-11.8638
▁मशेंदीन	-11.8641
हेर	-11.8641
▁मनुप्‍	-11.8642
ग‍मे	-11.8643
भाल	-11.8644
ूर	-11.8644
पाइक्‍ती	-11.8647
▁शेंताक्‍न्‍	-11.8648
▁अलेक	-11.8651
▁अबीउद	-11.8651
▁एलाजर	-11.8651
▁बारतीमै	-11.8651
मङाक्‍को	-11.8651
हत्‍तेरी	-11.8651
▁आखेल्‍दामा	-11.8651
▁उज्‍जीयाह	-11.8651
▁कोप्‍ताक्‍यीमी	-11.8651
▁खोरन्‍डे	-11.8651
▁टीबाक्‍ताक्‍से	-11.8651
▁प्रिस्	-11.8651
▁बारसाबास	-11.8651
▁मुइक्‍मुशा	-11.8651
▁मेसोपोटामीया	-11.8651
▁हानोक	-11.8651
▁हिज्कीयाह	-11.8651
▁गेथ्‍सेमने	-11.8651
▁बौला	-11.8651
▁गप्‍ल	-11.8651
▁त्रिफ	-11.8651
▁मजोइब	-11.8651
▁आहाज	-11.8651
▁ख्रुइक्‍तीकी	-11.8651
▁बगाल	-11.8651
▁मतेम्‍द	-11.8651
▁मरोक्‍थु	-11.8651
▁क्रीसो	-11.8651
शाफात	-11.8651
▁योसीयाह	-11.8651
▁मतुइक्‍पांइसे	-11.8651
▁योल्‍दल	-11.8651
▁सफीरा	-11.8651
▁एलीउद	-11.8651
▁डोकोम	-11.8651
▁सादोक	-11.8651
▁महिम्‍सीब	-11.8651
▁चाप्‍यल	-11.8651
▁शें‍द	-11.8651
▁मजाइनीकी	-11.8651
▁पतारा	-11.8651
▁मग्रुम्‍नय	-11.8651
‍कै	-11.8651
कलस्‍सी	-11.8651
▁मतुइक्‍पाइक्‍थु	-11.8651
▁क्रोइश्‍शा	-11.8651
▁सालोमे	-11.8651
▁ग्रुंइपांइसीने	-11.8652
▁गाइक्‍ताक्‍नी	-11.8652
▁प्रोंइसेक्‍ल	-11.8652
▁पुम्‍दमे	-11.8652
▁टीतय	-11.8652
▁मग्‍योम्‍	-11.8652
▁जाइतय	-11.8652
▁हिंपाइक्‍	-11.8652
▁मफार	-11.8652
▁ब्राइनुङ	-11.8652
▁शोक्‍समा	-11.8652
▁मगाइक्‍थु	-11.8652
▁जिक्‍ताक्‍म	-11.8652
▁मदोक्‍नुङ	-11.8653
▁युक्‍पाइश्‍शा	-11.8653
▁मतुइक्‍तमेक्‍ल	-11.8653
लशा	-11.8653
▁मतुइक्‍नन्‍नी	-11.8653
▁उज	-11.8653
▁रेप्‍‍ब	-11.8653
▁मताक्‍नुङ	-11.8653
▁नेरीयस	-11.8653
▁मताइनय	-11.8653
▁मब्राइनीम	-11.8653
▁वोंइसाक्‍व	-11.8653
▁मब्रोंइनीम	-11.8653
▁मतूङानु	-11.8653
▁चोइब	-11.8653
▁मतुइक्‍नेवे	-11.8653
▁थिम्‍मेक्‍ल	-11.8653
▁मग्रुम्‍थु	-11.8654
▁प्रोक्‍पदमे	-11.8654
▁जाइनेवे	-11.8654
ेक्‍शा	-11.8654
▁चिक्‍सो	-11.8654
▁मब्‍वाइनीम	-11.8654
▁गारपाइक्‍नीकी	-11.8654
▁खाप्‍सीब	-11.8654
▁मुकु	-11.8655
▁ममाल्‍नीकी	-11.8655
▁रोक्‍गा	-11.8655
▁अरेपमु	-11.8655
▁अकीम	-11.8655
▁क्‍युक्‍तु	-11.8655
▁योथाम	-11.8655
▁मबिग्रेने	-11.8655
फील	-11.8656
▁मतवल	-11.8656
▁मशोंइ‍	-11.8656
▁ग्रुंइपांइसीशो	-11.8656
▁मलमल	-11.8656
▁ब्‍वारब	-11.8656
▁खोइक्‍तक	-11.8656
▁मकुरथु	-11.8656
▁मतूथु	-11.8657
▁क्‍याल्‍तेक्‍म	-11.8657
▁थोक्‍ताक्‍व	-11.8657
▁खोइक्‍नेवे	-11.8657
▁दुम्‍‍तीनी	-11.8657
▁मगाइक्‍ब	-11.8657
▁थित्‍तक	-11.8657
▁मबाक्‍ङानु	-11.8658
▁ग्राम्‍शा	-11.8658
▁मख्रुम्‍	-11.8658
▁खोइक्‍पदा	-11.8659
▁गाम्‍न	-11.8659
▁ग्रुम्‍नन्‍नी	-11.8659
▁पुंइताक्‍स	-11.8659
▁थीतन	-11.866
‍तीनी	-11.866
▁तिल्‍तेक्‍म	-11.8661
▁चिक्‍तीनी	-11.8661
▁मलाइनुङ	-11.8661
▁चढ़ेम्‍तेक्‍म	-11.8661
▁युलीयस	-11.8661
▁यीनुङ	-11.8661
▁लूका	-11.8661
▁गेम्‍ताक्‍स	-11.8661
▁थुम्‍नुङ	-11.8661
▁चापीन	-11.8661
▁क्रोइक्‍चा	-11.8662
▁माल्‍टा	-11.8662
▁फोनीकस	-11.8662
▁मजाक्‍नी	-11.8662
▁थुम्‍तक	-11.8662
▁ग्‍याल्‍मा	-11.8663
▁टीबाक्‍तेक्‍म	-11.8663
▁क्‍याम्‍सीशा	-11.8663
▁मिम्‍‍नीम	-11.8663
▁ग्‍येरनीकी	-11.8663
क्‍कुम	-11.8664
▁थिम्‍‍तीके	-11.8664
▁ममिम्‍तमेक्‍ल	-11.8664
▁मपाइ‍नीम	-11.8665
▁मतुइक्‍तीनी	-11.8665
▁मख्रुइक्‍	-11.8666
▁अद	-11.8666
▁खेरनीनी	-11.8666
▁शोक्‍सीशा	-11.8667
फोस	-11.8667
▁मग्रुंइदुमी	-11.8667
▁मशिरब	-11.8668
▁लाइक्‍तीनी	-11.8668
▁योराम	-11.8668
▁शां	-11.8668
▁लाइक्‍नन्‍नी	-11.8669
▁जाक्‍ताक्‍स	-11.8669
▁तङल	-11.8669
▁मतूनीकी	-11.8669
▁लेत्‍तेक्‍म	-11.867
▁अराम	-11.8671
▁चढे़चा	-11.8672
िपी	-11.8672
▁गारीने	-11.8672
▁मतुंइ‍से	-11.8672
▁तोंइ‍सो	-11.8673
▁नाइक्‍पाइश्‍शा	-11.8673
▁ओव़नीनु	-11.8673
▁मिम्‍पाइक्‍ब	-11.8674
▁दिम्‍ब	-11.8674
▁मग्रुंइ	-11.8674
▁चिप्‍शा	-11.8674
▁फाल्‍नीनी	-11.8675
▁चुशा	-11.8675
प्‍तीनी	-11.8675
▁फांइसे	-11.8675
▁मदुम्‍थु	-11.8675
▁चोक्‍तेक्‍म	-11.8676
▁ब्‍वांइ‍सीशो	-11.8676
पाट	-11.8677
▁फ्रुक्‍शा	-11.8677
▁मब्रीम	-11.8677
▁चुइश्‍शा	-11.8679
▁रमल	-11.868
▁धनी	-11.8681
▁दिंस	-11.8681
पोक्‍चा	-11.8682
▁मतुइक्‍तक	-11.8683
▁थाप्‍त	-11.8683
▁क्‍ले	-11.8684
▁मगेयी	-11.8685
▁मताम	-11.8685
▁बोरतेक्‍म	-11.8685
▁लदसे	-11.8686
▁थोक्‍सीशा	-11.8686
क्‍याम्‍दीने	-11.8687
▁ब्‍वामेनु	-11.8688
▁ब्रीनीम	-11.8688
▁ओव़न	-11.8689
▁मगाक्‍कीन	-11.8689
▁ग्‍योम्‍सीशा	-11.869
▁बुक्‍ब	-11.8692
▁ग्रुम्‍नुङ	-11.8695
▁लाइनीकी	-11.8695
▁थित्‍ता	-11.8696
▁सापाइक्‍तु	-11.8696
▁लचावानु	-11.8698
ीलेने	-11.8702
▁इप्‍नीम	-11.8703
▁सफ	-11.8704
▁ताइबाक्‍तेक्‍म	-11.8704
▁फ्रशा	-11.8707
▁पपदल	-11.8708
▁मलुम्‍सीशो	-11.8708
▁सिश्‍शा	-11.8709
जर	-11.871
▁उर	-11.871
▁मरुप्‍नी	-11.871
▁रोदा	-11.8715
ङांइ	-11.8716
▁अत्‍त	-11.8718
▁मचाप्‍नीसी	-11.8719
▁मात्‍थान	-11.8719
▁शोक्‍ग‍मे	-11.8719
▁पाइक्‍नय	-11.8721
▁सुम्‍की	-11.8721
▁बेक्‍पाइक्‍चा	-11.8722
▁प्रोंइतीनी	-11.8722
▁मफेक्‍	-11.8723
▁मशोव़ङी	-11.8723
▁सेंसीने	-11.8724
▁रुप्‍पाइक्‍ब	-11.8724
▁कोंइदो	-11.8726
▁खोइक्‍नीकी	-11.8727
▁ङाम्‍पाइक्‍चा	-11.8727
▁मनाइक्‍चा	-11.873
फ्रे	-11.873
▁बै	-11.8732
▁दुम्‍यल	-11.8733
▁गाक्‍ङा	-11.8733
▁ताइनी	-11.8733
▁हिंती	-11.8736
▁प्रोंइनन्‍नी	-11.8738
▁कोठोम	-11.874
▁खाइक्‍ब	-11.874
▁मजय	-11.874
▁मदुम्‍त	-11.874
ाइनीम	-11.8742
▁मप्रोंइनीम	-11.8742
ासोन	-11.8743
▁मगाक्‍बा	-11.8744
▁लुम्‍सेक्‍ल	-11.8744
▁पाइक्‍तीकी	-11.8744
▁युस्‍तस	-11.8746
▁ब्‍वने	-11.8746
▁जाक्‍कीने	-11.8747
▁कछ	-11.8748
▁राप्‍पाइक्‍नुङ	-11.8749
▁बेक्‍नय	-11.8749
▁साम्‍चा	-11.875
▁मदेंनीमी	-11.8752
▁जन्‍ती	-11.8754
▁थुकुम	-11.8754
▁लेयसी	-11.8757
▁पढेने	-11.8758
▁पुंइसाक्‍	-11.8761
ेयस	-11.8761
▁साइक्‍तेक्‍मे	-11.8761
▁तपाइश्‍शा	-11.8764
▁लेत्‍नीनी	-11.8765
▁लीताक्‍स	-11.8766
▁मगेक	-11.8768
▁ग्रुम्‍पदा	-11.8768
गेप्‍तु	-11.8768
▁शेंबाक्‍मा	-11.877
▁पिमेनु	-11.8771
▁बित्‍च	-11.8772
▁मूर	-11.8775
▁दाल्‍	-11.8776
▁मशेंदीमी	-11.8776
▁मटीनीमी	-11.8776
▁माल्‍या	-11.8777
▁मसाम	-11.8778
▁फ्राब	-11.8779
▁कोव़नीनी	-11.8781
▁अग	-11.8782
▁खेरता	-11.8785
▁पाइय्‍यी	-11.8786
▁नेरी	-11.8788
▁लीशा	-11.8791
▁ब्रेत्‍तीमी	-11.8792
▁मपढेशो	-11.8794
▁फ्रेंताक्‍	-11.8801
▁लुक्‍शो	-11.8808
्‍ली	-11.8809
‍तीमी	-11.8809
▁मलावो	-11.881
▁योक्‍गा	-11.8812
▁थितीम	-11.8812
▁फाल्‍तीके	-11.8813
▁खुम्‍सीनीम	-11.8815
▁हिम	-11.8827
येरमी	-11.883
ीयन	-11.8831
▁पिमे	-11.8831
▁रुप्‍मे	-11.8831
▁सा‍शा	-11.8833
▁लदी	-11.8838
ग्‍याल्‍पाइश्‍शा	-11.884
▁दाक्‍मुइनीम	-11.8841
▁तेक्‍शा	-11.8845
ार	-11.8847
▁रिम्‍ब	-11.8849
बाक्‍नय	-11.8849
▁देंङा	-11.885
▁हेंशा	-11.885
जाक्‍कीन	-11.8857
▁प्रेक्‍ग	-11.8857
▁पोक्‍नीमी	-11.8862
देंबाक्‍मा	-11.8862
▁चढ़ेने	-11.8866
▁शोक्‍सी	-11.887
▁ग्‍योम्‍सी	-11.8871
पस	-11.8873
▁राज	-11.8879
बिक्‍नीस	-11.8886
▁साइक्‍तु	-11.8889
क्‍ग्‍मे	-11.8889
▁मसुइय्‍‍यी	-11.8889
▁ग्‍येरसे	-11.8894
नां	-11.8894
▁मशोक्‍	-11.8896
▁मनस्‍कु	-11.8899
▁सिलोआ	-11.8899
▁निस्‍सीने	-11.8901
▁जचशो	-11.891
▁दाक्‍नन्‍नी	-11.8912
▁वोइक्‍बा	-11.8919
▁हिक्‍शो	-11.8927
▁ग्रुंइपांइस	-11.8928
ख्राइक्‍पाइश्‍शा	-11.8933
▁ग्रानी	-11.8935
▁मतो	-11.8942
▁सापदु	-11.8943
मेक	-11.8949
▁रुम्‍नी	-11.8951
▁पेन्	-11.8954
्‍युर	-11.8957
▁जाक्‍स	-11.8957
▁सारद	-11.8963
▁प्रेंद	-11.8963
▁सुम्‍ब	-11.8965
▁शेंता‍क्‍न्‍	-11.897
▁माइक्‍थ	-11.8971
ब्रोंइचा	-11.8972
▁मसापाइक्‍चा	-11.8975
सेल्‍नीम	-11.8982
▁मगेबा	-11.8997
खाल्‍	-11.8998
▁सेल्‍सीबपुकी	-11.9002
ेरतु	-11.9014
त्रा	-11.9019
▁ब्रेक्‍तु	-11.9028
▁बङस	-11.9029
▁शेंदसे	-11.9029
▁हेंम	-11.9034
▁सेंनुङ	-11.9036
▁दोक्‍त	-11.9042
▁शोव़शा	-11.9045
▁नेंनुङ	-11.9047
▁साइक्‍नीमी	-11.9055
क्‍याल्‍पाइश्‍शा	-11.9055
▁पांइसीनीम	-11.9058
न्‍मे	-11.9069
कोव़ङीसे	-11.9074
चाक्‍कीन	-11.9074
्र	-11.9078
▁होव़पम	-11.9079
कोंइनन्‍नी	-11.9087
▁थुल्‍मी	-11.9087
▁जङा	-11.9093
लुम्‍सीशो	-11.9112
प्‍स	-11.9118
▁मदेंमा	-11.9126
ोइक्‍ताक्‍स	-11.913
साक्‍यी	-11.9147
▁ओंइदमे	-11.9148
▁दुम्‍नया	-11.9151
▁सामा	-11.9158
केम	-11.9162
्रिस्‍	-11.9164
▁तुइक्‍ती	-11.9179
▁जिज	-11.918
▁वां	-11.9184
▁दुम्‍तेक्‍मे	-11.919
▁माल्‍तीमी	-11.9196
▁मपुंइसम	-11.92
िम्‍	-11.9201
▁मखुप्‍ब	-11.9204
▁कोंइताक्‍न्‍न	-11.9205
एली	-11.9217
▁क्‍याल्‍पाइक्‍ब	-11.9219
िप्‍पाइक्‍चा	-11.9225
िम्‍पाइक्‍तन्‍नी	-11.9225
फर	-11.9227
ओव़ङीन	-11.9227
सतीन	-11.9228
▁भाला	-11.9229
▁ग्‍येरप	-11.9236
▁प्रोक्‍नीम	-11.9247
▁दुम्‍य	-11.9251
▁नाइक्‍नीम	-11.9272
▁थित्‍ती	-11.9282
ि	-11.9287
▁सेल्‍नन्‍	-11.9293
▁नेंस	-11.9296
▁लस	-11.9297
▁क्‍योरसीच	-11.9315
गेम्‍तेक्‍म	-11.9327
दम	-11.9328
▁सेंसीनीमी	-11.9348
▁सापाइक्‍नुङ	-11.9408
▁नेंपदु	-11.9416
▁गाप्‍	-11.9423
न्‍द्री	-11.9431
▁रूशा	-11.9434
▁एकोपुकी	-11.9436
▁थोक्‍ताक्‍	-11.9443
पाइक्‍बा	-11.9445
▁ओशोमी	-11.9448
रना	-11.9455
्‍याम्‍सीबा	-11.9456
▁मग्‍याइक्‍	-11.9475
▁पपाइय्‍य	-11.9494
▁खाइक्‍पाइक्‍नी	-11.9504
▁देंस	-11.9512
▁ख्रोइक्‍नीम	-11.9514
दीम्‍सी	-11.9518
▁मग्र	-11.954
नेनो	-11.9551
▁गाक्‍नुङ	-11.9554
▁उप्‍	-11.9554
ुलु	-11.9563
ओव़चा	-11.9564
तीस	-11.958
▁मसेल्‍सीन	-11.9589
्‍से	-11.9595
▁पाइक्‍नुङ	-11.9612
▁ग्‍याइक्‍पदा	-11.9613
▁ओव़च	-11.9618
▁सुम्‍साक्‍	-11.9621
▁बाक्‍मेनुन	-11.9632
▁मतङमी	-11.9647
▁सोंइसी	-11.9657
▁तपांइसी	-11.9662
▁तां	-11.9669
▁ब्रतीके	-11.9679
▁पुनु	-11.968
ताक्‍वी	-11.9701
ीमेन	-11.9703
▁मसुइक्‍तीके	-11.9703
▁मखोइक्‍नीम	-11.9717
▁क्‍योरमु	-11.9733
▁मगाइक्‍	-11.9753
ंइ‍साक्‍म	-11.9758
ुस	-11.9762
▁प्रोन्‍	-11.9768
▁हिम्‍सीब	-11.9771
▁साइलाम	-11.9777
▁लेयङमे	-11.979
▁मुंइ‍स	-11.9795
▁खुम्‍साक्‍	-11.9796
▁मथुम	-11.9805
▁रोप्‍	-11.9807
▁योव़नुङ	-11.9812
ुइक्‍थ	-11.9826
लेत्‍नीनी	-11.9833
▁गाम	-11.9836
▁मसुम्‍	-11.9857
ाक्‍यी	-11.9868
▁जोक्‍नीम	-11.9869
▁साइक्‍बा	-11.9869
ताक्‍म	-11.987
▁सापाइक्‍च	-11.9871
▁मतुंइ‍स	-11.9875
▁ब्रेक्‍पद	-11.9887
▁रोइम	-11.99
▁मिम्‍ताक्‍यी	-11.9902
▁मनङा	-11.9905
जाक्‍चाम्‍तेक्‍म	-11.9908
पपाइक्‍ब	-11.9914
पदमेक्‍ल	-11.9924
पांइसेक्‍ल	-11.9924
▁लेत्‍‍च	-11.9934
▁मोदेंशा	-11.9945
▁मचिक्‍सी	-11.9947
▁हिम्‍सी	-11.9951
▁वाक्‍ब	-11.9958
▁योक्‍स	-11.996
▁नांम	-11.9973
▁जिमुश	-11.9976
कुरब	-11.9979
▁तूङ	-11.9984
लचा	-11.9986
▁मदाक्‍नीमी	-11.9995
हुइक्‍तो	-12.0032
▁तुइक्‍पाइक्‍न	-12.0035
▁फाइक्‍	-12.0044
्रेक्‍शो	-12.0045
▁फे	-12.0054
▁पका	-12.0058
▁प्रोंइत	-12.0062
गन	-12.0077
दीय	-12.0092
▁ब्रने	-12.0096
▁मपुंइ	-12.0107
▁पोक्‍तीके	-12.0117
रुप्‍नेवे	-12.0127
▁शेंदी	-12.0136
▁योआन	-12.0138
रूब	-12.0139
ीनस्‍कु	-12.0149
िली	-12.0156
▁चाक्‍मी	-12.0174
▁यिपाइक्‍	-12.0179
्‍शा	-12.0186
▁सुइक्‍पतीन	-12.0204
▁ओव़ङी	-12.0206
▁आप्‍न	-12.0217
▁रुप्‍पतीन	-12.0221
ामी	-12.0223
▁इम्‍मा	-12.0245
▁गोशा	-12.0247
नङ	-12.0257
▁मखाइक्‍पाइक्‍	-12.0268
▁सुइक्‍य	-12.027
▁मकोंइद	-12.0275
▁मब्‍वा	-12.0283
सुइम	-12.0287
▁तुइक्‍पांइसीन	-12.0295
ेश्‍शो	-12.0298
िक्‍त	-12.0331
▁तुइक्‍पाइक्‍ता	-12.0341
▁गाक्‍य	-12.0346
्‍दा	-12.0347
▁क्‍यु	-12.0352
▁गेयम	-12.0362
ुम्‍ब	-12.0366
ंइ‍से	-12.0376
▁खेरती	-12.0386
▁दोरबपुकी	-12.0417
▁ख्रोदमे	-12.0427
चाप्‍तेक्‍म	-12.0431
ाङग	-12.0453
▁ग्‍याइक्‍पा	-12.0453
▁जाम्‍श	-12.0464
▁नेंपतीन	-12.0466
▁सात	-12.0475
▁मप्रोंइत	-12.0478
▁सुइक्‍त	-12.0481
ाक्‍गा	-12.0495
▁जाक्‍दीत	-12.0498
लीया	-12.0507
▁बोरत	-12.0527
▁क्‍येटम	-12.0536
▁लाइक्‍नीम	-12.0541
मुशो	-12.0545
▁ग्रुंइताक्‍	-12.0572
▁चाक्‍नीम	-12.0588
मिम्‍ताक्‍म	-12.0601
▁राप	-12.0607
▁सन्‍	-12.0631
▁मब्रेक्‍	-12.066
मोक्‍ल	-12.069
▁टिन	-12.0704
ोसाम	-12.0707
▁चिक्‍सी	-12.0726
▁दाल	-12.0727
▁ग्रीन	-12.074
टीनीनी	-12.0746
्रिं	-12.075
▁शिरश	-12.0775
▁मशेंद	-12.0776
पुंइनीम	-12.0781
▁पया	-12.0783
क्‍स	-12.0817
▁कोंइताक्‍न	-12.0822
ंइसीशो	-12.0855
▁जाक्‍दी‍	-12.0857
▁जेठाम	-12.0868
▁मदुम्‍नीन	-12.0871
स्‍से	-12.0876
▁ब्‍वामी	-12.0879
ांबु	-12.0904
तुइक्‍ताक्‍म	-12.0924
िर	-12.0926
▁अल्‍	-12.0976
ेकेर	-12.0982
▁सोइक्‍ताक्‍स	-12.0986
▁म‍मा	-12.1003
बेक्‍नय	-12.1007
देंने	-12.102
▁खाइ	-12.1034
▁मयोव़ङ	-12.1077
▁चाक्‍दीत्‍ती	-12.1081
▁सेल्‍नुङमी	-12.1094
ल्‍ले	-12.112
ेन	-12.1122
ओपा	-12.1127
▁मसाम्‍	-12.1127
ताइनीकी	-12.1133
▁गेच	-12.116
िक्‍तीके	-12.1161
क्‍पाइक्‍तीके	-12.1181
तिक्‍ब	-12.1182
ुइश्‍शा	-12.1184
▁मबाक्‍मा	-12.1203
▁खाइक्‍मा	-12.1217
▁शिशीम	-12.122
▁वोइक्‍प	-12.1224
▁चु	-12.1235
कोव़तीनी	-12.1239
ेंसाक्‍व	-12.1259
ुइक्‍तीने	-12.1267
गेम	-12.1269
क्‍बपुकीमी	-12.1283
▁बाल	-12.1285
▁क्‍यदमे	-12.1286
▁ब्रपाइक्‍ब	-12.1291
▁बोसपुकी	-12.13
ीशा	-12.1301
ंइचा	-12.1315
▁पाइनी	-12.133
क्‍ताक्‍म	-12.1338
▁पुन	-12.1344
यान	-12.1348
दुम्‍सीब	-12.1355
▁कस	-12.1356
▁ट	-12.1409
क्‍कीने	-12.1414
मोन	-12.1415
▁प्रोंइश	-12.1473
▁रुप्‍प	-12.1503
▁क्रोइक्‍	-12.1508
क्‍पाइक्‍ब	-12.1534
▁थुमीन	-12.1539
ाप्‍नीनी	-12.1544
िम्‍चा	-12.1546
ंइताक्‍व	-12.1563
▁रुम्‍	-12.1572
क्‍ताक्‍व	-12.1574
कुल	-12.1576
▁चेम्‍त	-12.1605
म्‍सीनीम	-12.1633
हाब	-12.1637
▁हाक्‍ब	-12.1638
बमी	-12.164
गेमी	-12.1665
▁चेम	-12.1666
▁मतङा	-12.1667
▁मशेंसीनी	-12.1708
पाइक्‍तीके	-12.1751
▁रोप्‍त	-12.1752
▁हजुरमी	-12.1761
▁महें	-12.177
पाइय्‍यी	-12.1774
▁हेरोदी	-12.1782
क्‍थु	-12.1795
ाक्‍कीन	-12.1805
क्‍तीकेमी	-12.1809
‍तय	-12.181
▁दिक्‍मा	-12.1829
▁थित	-12.1841
▁मतिल्‍	-12.1854
▁नया	-12.1859
पाइक्‍तन्‍नी	-12.1878
▁मब्री	-12.1882
▁कोव़ङ	-12.1915
▁ख्रोइक्‍पांइस	-12.1918
▁वोंइ	-12.1936
▁एस	-12.1936
▁मपाइय्‍य	-12.1953
▁लेत्‍ताक्‍	-12.1957
्रु	-12.1964
▁क्‍यार	-12.1998
▁अरेसी	-12.2021
▁पच्‍छिम	-12.2053
▁प्रे	-12.2064
स्‍	-12.2069
रनीस	-12.2092
▁ब्रन	-12.2104
▁गाइक्‍तीक	-12.211
▁कोल्‍पा	-12.2132
▁थाप्‍तीन	-12.2146
▁मओव़नी	-12.2147
▁ग्‍याइक्‍पाइ	-12.2151
क्‍मुचा	-12.2153
▁मखब	-12.2166
▁इच	-12.2189
▁मबाक्‍	-12.2202
ङल	-12.2213
▁सभा	-12.2213
लेम्‍मल	-12.2232
▁तुंइन	-12.2249
▁प्रोंइसीन	-12.2253
▁पुंइनी	-12.2278
▁गिल्‍श	-12.2282
ुक्‍ब	-12.2287
▁बोक्‍मा	-12.2287
नस	-12.2292
▁राम्‍मे	-12.2314
▁तेक्‍	-12.233
नेंशो	-12.2333
टितीके	-12.2335
तान	-12.2336
▁मुन	-12.2344
▁खुम्‍सीश	-12.2348
‍थ	-12.2354
▁चुमु	-12.2359
नाइक्‍स	-12.2361
ाक्‍य	-12.2362
▁चलेबपुकी	-12.2368
क्र	-12.2392
व़ङमे	-12.24
▁मवोइक्‍नन	-12.2405
▁फाल्‍त	-12.2424
▁वोलपुकीम	-12.2429
▁मबारपाइ	-12.2434
▁पिपीपुकी	-12.2449
▁पाथी	-12.2449
▁मरुप्‍‍नी	-12.2459
▁ग्रुंइनीम	-12.2461
▁ताम्‍बुम	-12.2467
नीस	-12.2474
ाक	-12.248
▁वोती	-12.2488
▁थिदा	-12.2491
ेत्‍नुङ	-12.2497
मचाप्‍नीकी	-12.2525
▁दुम्‍शोपुकीमी	-12.2527
▁ब्रेत्‍ताक्‍म	-12.2565
▁प्रुइ	-12.257
बाक्‍ल	-12.2573
्‍नी	-12.2586
तामी	-12.259
▁ग्रीकपुकी	-12.2592
पाइक्‍नीमी	-12.2602
ताक्‍चा	-12.2602
▁बोरपाइश्‍श	-12.263
▁फिक्‍	-12.2634
इक्‍पदा	-12.2642
कली	-12.2653
रोइक्‍ब	-12.267
ुक्‍शो	-12.2671
▁पेरतीके	-12.268
क्‍नीमी	-12.2684
▁चोक्	-12.2686
▁देंनीस	-12.2689
▁योव़मी	-12.269
▁फ्रेंसी	-12.2804
▁पाक्‍शा	-12.2825
▁सभाम	-12.2829
ेशो	-12.2834
▁गिल्	-12.2834
इतक	-12.2851
▁इप्‍ब	-12.2873
ेब	-12.2881
▁थेक्‍	-12.2882
▁मबोरप	-12.2883
इश	-12.2885
▁इप्‍श	-12.2885
▁डु	-12.2891
▁मदें	-12.2907
ेंङ	-12.2911
▁दुम्‍‍त	-12.2915
ाक्‍नीम	-12.2926
ल्‍म	-12.2938
▁दिप्‍‍श	-12.2948
▁खुप्‍ताक्‍म	-12.2963
▁मपुंइसीनी	-12.2973
ुक	-12.2981
्रोक्‍शा	-12.2992
▁पच्‍छिमम	-12.2996
▁व	-12.302
▁ग्‍याइ	-12.303
▁पाथीम	-12.303
्रुइश्‍शो	-12.305
इक्‍पाइक्‍चा	-12.3064
मुचा	-12.3067
▁तपांइसाक्‍	-12.3077
▁अरेश	-12.3111
▁सिल्‍	-12.3117
▁योक्‍	-12.3134
▁ग्रुम्‍मी	-12.3162
‍से	-12.3177
▁ममाल्‍	-12.3217
▁लेत्‍त	-12.3221
▁प्रोंइपाइक्‍ती	-12.3232
▁मलीम	-12.3271
▁पदा	-12.3274
कीन	-12.3319
▁थिच	-12.3323
▁मसेल्‍	-12.3359
पाइक्‍तीकी	-12.3383
पीनीनी	-12.3418
चाप्‍तीक	-12.3425
▁थुल्‍न	-12.3441
▁पेरतीकेम	-12.3464
▁निप्‍प	-12.3466
▁पापीपुकीम	-12.348
चाप्‍नेवे	-12.3483
फस	-12.3506
▁क्‍युक्‍सीश	-12.3507
▁शिरनी	-12.3512
▁क्‍याम्	-12.3532
▁ग्‍येरपा	-12.3533
▁पी	-12.3535
▁जाम	-12.3543
▁मक्‍या	-12.3544
▁थुम्‍त	-12.3547
▁वोइक्‍पाइक्‍त	-12.3554
▁सामो	-12.3582
ङमे	-12.3589
जोर	-12.359
▁मख्रोइक्‍	-12.3598
नास	-12.36
ंइ‍सीशा	-12.36
म्‍	-12.3602
ाइतीनी	-12.3615
ेत्‍	-12.3631
ीम्‍सी	-12.3668
▁ब्रेम्	-12.3668
्‍था	-12.3698
म्‍थ	-12.3721
इब	-12.3724
▁सुन्‍त	-12.374
ंइसाक्‍व	-12.376
▁शेंसीन	-12.3762
▁बाक्‍का	-12.3799
▁रोक्‍तीक	-12.3823
पमुइनीम	-12.3831
▁तोक्	-12.3855
सास्‍त्री	-12.386
▁श्‍येतमी	-12.3861
तिल्‍नुङ	-12.3884
म्‍मानु	-12.3895
▁तुइक्‍नुङमी	-12.3907
ओर	-12.3929
▁गाक्‍बाक्‍	-12.3935
ंइ‍सी	-12.3952
ोइक्‍पाइश्‍शा	-12.3973
इक्‍तीवी	-12.4
▁ठ	-12.4012
▁ग्‍याप्‍त	-12.4022
‍साक्‍व	-12.4026
मुरपुकीम	-12.4056
ाइक्‍ती	-12.4062
मोसा	-12.4082
▁पे	-12.4095
टिशो	-12.4115
▁इस्राएलीपुकीम	-12.4123
▁भोजम	-12.4128
▁वोइक्‍पाइक्‍	-12.4138
▁मजङ	-12.414
▁ङोंइ‍साक्‍	-12.4153
▁मजरमेस	-12.4162
▁मप्र	-12.4163
▁ङोइक्‍पाइक्‍त	-12.417
ाक्‍ती	-12.42
▁मयि	-12.4233
▁खेत	-12.4243
थिचा	-12.4244
▁ग्‍येत्	-12.4256
▁गेम	-12.4267
सुइक्‍नीसी	-12.4278
ोक्‍कीन	-12.4287
▁सेल्‍तीके	-12.43
▁पढेनी	-12.4319
ंसाक्‍व	-12.4378
बी	-12.438
सुइक्‍नीकी	-12.4415
▁मजोक्‍बपुकी	-12.444
चाप्‍तु	-12.4459
▁ब्रोंइङा	-12.4464
प्‍नीनी	-12.4477
▁बोरपाइक्‍न	-12.4483
▁मप्रेंदी	-12.4501
▁ग्रूच	-12.4523
▁तुइक्‍पा	-12.4526
▁जाक्‍नुङा	-12.454
▁सुइक्‍ती	-12.4551
फेक्‍बाक्‍माक्‍त	-12.4555
क्‍सी	-12.4577
▁हिरब	-12.459
▁मिम्	-12.459
क्‍व	-12.4598
स्‍क	-12.4599
▁मनस्‍	-12.46
क्‍मा	-12.462
▁तेक्‍तीक	-12.4632
▁बेक्‍पाइक्‍	-12.4634
▁लेप्‍पा	-12.4635
▁मलाइ	-12.4651
▁किप्‍ब	-12.4679
▁ग्रूमा	-12.468
▁ख्राइक्‍पपाइ	-12.4692
▁सिक्‍	-12.4714
▁मचा	-12.4733
ारीयो	-12.4743
▁सेंपाइश्‍श	-12.4768
ुस्‍	-12.4772
ाक्‍शा	-12.4799
▁प्रोन	-12.4806
ुने	-12.4809
▁प्रोक्‍बाक्‍मा	-12.4837
▁मकोंइ	-12.4839
▁ब्‍वांइ‍सी	-12.4845
ाक्‍नुङ	-12.4847
▁प्रिंद	-12.4854
▁लेप्‍पाइश्‍श	-12.4854
▁चिक्‍बपुकी	-12.4856
▁रोक	-12.4861
▁चाक्‍बपुकी	-12.4865
▁निस्‍	-12.4867
▁चुरमा	-12.4883
ाक्‍ब	-12.4917
▁तिल	-12.4922
ाक्‍दीप्‍ब	-12.4974
्रेक्‍ताक्‍व	-12.5006
▁साइक्‍पाइक्‍न	-12.5006
नाक्‍चा	-12.5022
▁थे	-12.5022
इक्‍नीम	-12.5037
ोप	-12.5064
▁माइय्‍‍यी	-12.508
▁होश	-12.5092
ुप्‍तेक्‍म	-12.5093
तमे	-12.5102
▁ब्रुइ	-12.5104
क्‍मल	-12.5104
▁सुइय्‍यी	-12.5109
▁ग्रीमे	-12.5125
▁थाल	-12.5132
ीनुङ	-12.5139
▁गोल्‍मा	-12.514
ोट	-12.5143
उप्‍नीम	-12.5153
ाक्‍मे	-12.5156
▁क्‍याल्‍पाइक्‍	-12.5199
ुन	-12.5201
ुप्‍पाइक्‍नन्‍नी	-12.5216
▁मबाक्‍क	-12.5244
▁पुंइत	-12.5267
िमेनु	-12.527
क्‍साक्‍व	-12.5307
क्‍तीने	-12.5317
▁जाइन	-12.5321
्‍मा	-12.5331
प्‍पाइश्‍शा	-12.5349
▁कोल्‍प	-12.5392
ङमी	-12.5403
▁मता	-12.5411
‍पाइक्‍	-12.5415
▁मटितीकेम	-12.5444
ोसीया	-12.5457
▁प्रोंइपाइक्‍	-12.5468
क्‍पाइक्‍मी	-12.5483
▁योव़सीश	-12.5489
▁चढ़ेन	-12.5493
▁नाइक्‍त	-12.5513
दीन	-12.5521
▁सेल्‍यी	-12.5536
ाले	-12.5547
सीनुङ	-12.5547
▁कुस	-12.5553
▁क्‍योरपाइश्‍श	-12.5554
▁दाक्‍न	-12.5562
▁गोल्‍त	-12.5634
▁जहाजम	-12.5641
दल	-12.5646
‍ची	-12.5662
▁योल्‍त	-12.5682
थान	-12.5714
▁मक्‍य	-12.5758
▁मपढे	-12.5758
देम	-12.5759
▁ब्रुइक्‍	-12.576
इक्‍नीकी	-12.5767
▁तुइक्‍पाइक्‍तीक	-12.5771
इक्‍तीक	-12.5809
लीस	-12.5815
▁पमुन	-12.5877
इक्‍तमे	-12.5877
िम्‍शो	-12.5885
दीम्‍मा	-12.5886
▁देन	-12.59
रपाइक्‍चा	-12.5907
▁कोक्‍	-12.591
▁दोम्‍	-12.5918
द्र	-12.592
▁बोरपदमे	-12.5925
पीने	-12.593
ाक्‍गुनु	-12.5958
क्‍को	-12.5972
इच	-12.5978
▁मखेर	-12.5979
ीके	-12.5981
▁मवोइक्‍	-12.5982
▁साल	-12.6004
▁सेल्‍मी	-12.6014
▁वांकुम	-12.6026
▁मप्रो	-12.6027
▁मिम्‍त	-12.6036
्‍तान	-12.6039
शोपुकी	-12.6042
▁मन्‍दीरम	-12.605
▁क्‍योरपा	-12.6067
▁तेम्‍	-12.6075
ेप्‍ब	-12.6141
▁तुप्	-12.6143
▁मिक्‍ची	-12.6149
▁ङोइक्‍पा	-12.6158
ेथ	-12.6158
▁एलीशीबाम	-12.616
▁बारपाइक्‍न	-12.6164
▁सम	-12.6168
▁ब्रोंइशोपुकी	-12.6175
कारी	-12.6187
्‍त	-12.6187
▁खाइक्‍पा	-12.6204
▁मिम्‍ताक्‍	-12.6206
िम्‍पाइक्‍चा	-12.6209
▁नेन	-12.6219
प्‍नुङ	-12.6224
▁तुप्‍न	-12.6232
ेंपाइक्‍नुङमी	-12.6235
▁युप्‍	-12.6294
▁मिम्‍नी	-12.6294
▁मयोव़	-12.6298
▁सेल्‍त	-12.6326
▁रिक्	-12.6333
▁तोंइ‍सा	-12.6352
‍सीन	-12.6362
प्रोंइयी	-12.6363
▁वाल्‍त	-12.6374
▁याक्‍	-12.638
▁मुरु	-12.6386
दुमी	-12.6387
▁फ्रेंश	-12.6388
▁नाक्‍तीनी	-12.6399
▁राप्‍पा	-12.6403
▁सोइक्‍तीक	-12.6408
्‍न	-12.6408
▁मक्‍याल्‍	-12.6413
दाक्‍बा	-12.6413
▁ब्रीमा	-12.6437
▁सेल्‍स	-12.6438
नाम	-12.6438
मुमा	-12.6453
▁मब्‍वाइ	-12.6453
त्‍तेक्‍म	-12.6455
▁मजरमे	-12.6462
▁पाइक्‍बाक्‍मा	-12.6463
▁शुर	-12.6465
तुइक्‍पाइक्‍तामी	-12.6505
आन्‍न	-12.6512
ेक	-12.6522
ाग	-12.6538
▁मपाइश्‍शोपुकी	-12.6566
▁जाम्‍न	-12.6571
गि	-12.6579
्‍ले	-12.6592
लेत्‍चा	-12.6597
ल्‍मा	-12.6613
▁ब्रेप्‍	-12.662
‍पाइक्‍चा	-12.6624
▁क्‍योरश	-12.6629
▁प्रेक्‍मा	-12.6647
▁दाक्‍ङा	-12.6648
▁फाराओम	-12.667
▁एसीयाम	-12.6724
▁मनेन	-12.6727
▁ममाल्‍नी	-12.6734
▁इम्‍	-12.6751
ाक्‍ङे	-12.6769
दुम्‍बाक्‍माक्‍त	-12.6775
व़की	-12.68
सरकारम	-12.6802
▁ब्रेक्‍ताक्‍न	-12.6822
▁जाव	-12.6831
▁चाक्‍पा	-12.6881
थुमा	-12.6892
पदल	-12.6909
▁जाक्‍दीम	-12.6909
रीस	-12.6938
▁ठिटाम	-12.6941
▁मुइश्‍शो	-12.6947
▁ताप्‍च	-12.6958
ुंइशा	-12.6965
▁मकोंइदी	-12.6978
▁तिम	-12.7002
▁प्रोक	-12.7005
▁सोव़मा	-12.7009
▁दुप्‍प	-12.702
▁ब्राइती	-12.7031
▁सुम्‍‍श	-12.7039
▁तपाइक्‍न	-12.705
ेक्‍पाइक्‍ब	-12.7055
▁मसाइक्	-12.7062
आम	-12.7065
▁मानेन	-12.7067
ाप्‍ने	-12.7073
देमे	-12.71
▁सिमियोनम	-12.7129
▁तूनीन	-12.713
▁काप्‍च	-12.715
इक्‍तेक्‍म	-12.7157
▁थुम	-12.7162
ाइक्‍पाइक्‍नेवे	-12.7165
▁दाक्	-12.7167
▁राम्‍मा	-12.7169
बाक्‍कीन	-12.7177
▁ब्रवा	-12.7195
▁मजाक्‍दीत्‍	-12.7195
▁मताइ	-12.7201
▁नाप्‍	-12.7202
▁नांइ‍स	-12.7206
ारद	-12.7208
▁नाइक्‍पा	-12.7218
ोप्‍शा	-12.7222
▁मबेक्	-12.7244
▁सुइय्‍‍यी	-12.7279
ल्‍तीनी	-12.7279
▁मख	-12.7281
म्‍पाइक्‍चा	-12.7284
ीथु	-12.7285
लां	-12.7291
▁मब्रा	-12.7293
तुइक्‍ब	-12.7297
‍ताक्‍यी	-12.7297
ोक्‍पाइश्‍शा	-12.7316
▁मटी	-12.7328
▁ताइत	-12.733
ंइसीन	-12.7331
▁टितीक	-12.7337
▁प्रोंइपा	-12.7347
▁साइक्	-12.7349
▁बाक्‍सीन	-12.7352
▁इप	-12.7359
लुसीय	-12.736
▁साइक्‍बपुकी	-12.7364
अरेव	-12.7365
▁गारपा	-12.7376
▁मजाक्‍दीम	-12.7409
पने	-12.7432
‍नीकी	-12.7434
थानी	-12.7466
पीया	-12.7474
▁गुप्‍श	-12.7493
्‍थु	-12.7501
ोव़मी	-12.7505
▁मलेय	-12.7508
▁दारपा	-12.7519
▁चोक्‍पा	-12.7522
यीमी	-12.7525
▁तेम्‍स	-12.7527
▁कछड	-12.7534
▁दुप्‍	-12.7547
▁मवोइक्‍त	-12.755
▁दोरत	-12.7557
सक्ति	-12.7572
▁शेंताक्‍	-12.7582
नेंशा	-12.7597
▁मखुप्‍	-12.7609
▁सुइय्‍य	-12.7629
जाक्‍दीन्‍नी	-12.7633
इक्‍नुङ	-12.7655
▁कोव़ङीस	-12.7667
ग्रो	-12.7671
▁कोंइता	-12.7694
▁तेल्‍	-12.7697
मजशो	-12.7703
थोक्‍ब	-12.7704
▁ब्रुम्‍	-12.7718
तुइक्‍पाइक्‍थ	-12.7722
ोव़ज	-12.7748
▁इना	-12.775
▁ख्रेक्‍स	-12.7774
▁बेक्‍न	-12.7831
▁खुप्‍ताक्‍	-12.7832
प्‍नीमी	-12.7833
▁वोइक्‍तन	-12.7835
▁ग्‍युम्‍लीम	-12.7848
ेत्‍नीनी	-12.7854
▁तोंइस	-12.7863
काइ	-12.7864
▁शेंता‍क्‍	-12.7876
▁मततीक	-12.7889
▁तुइक्‍पाइक्‍नन	-12.7892
▁तेक्‍न	-12.7912
ेद	-12.7918
यल	-12.7918
▁इप्‍पा	-12.7934
▁सांकछीपुकी	-12.7947
▁सापाइक्‍बाक्‍मा	-12.7953
पांइसे	-12.796
▁लु	-12.7966
यहूदा	-12.7967
सोइश्‍शो	-12.7969
▁कीश	-12.7974
▁कोव़बपुकी	-12.7975
प्रोंइचा	-12.798
▁मचाप्‍नी	-12.7982
मेकोम	-12.7986
ोम्‍ताक्‍व	-12.7988
नाक्‍त	-12.8013
▁मतुंइ	-12.8038
▁पाम्‍	-12.8045
▁सिप्‍पा	-12.806
▁कीपा	-12.806
▁पुंइतीक	-12.8078
्रोइक्‍ब	-12.8086
समुन्‍द्र	-12.8087
सैतान	-12.8093
▁मलाइक्‍न	-12.8101
ग्रांग्रा	-12.8104
▁रोमम	-12.812
ग्‍येरपाइक्‍ब	-12.8124
रनुङ	-12.8132
▁मनेनी	-12.8134
ब्रेश्‍शा	-12.814
▁हिंबाक्‍मा	-12.8154
▁दाप्‍च	-12.8163
शोंप	-12.8163
▁मपाम्‍से	-12.8169
▁सुंइ‍सीश	-12.8174
▁सुइक्‍तीकेम	-12.8174
▁जिक्‍	-12.8175
ोम्‍सीशो	-12.8178
▁खोलाम	-12.8178
▁थोक्‍ती	-12.8183
▁मथाप्‍ता	-12.8191
‍ताक्‍व	-12.8196
▁प्रोक्‍त	-12.82
खोइल	-12.8204
▁जितीक	-12.8207
ग्‍येर	-12.8222
ल्‍स	-12.823
आसीक	-12.823
▁ग्‍युक्‍	-12.8232
▁गाइक्‍ता	-12.8234
▁येस	-12.8244
▁चाप्‍न	-12.8247
गाउं	-12.8248
‍ताक्‍म	-12.8253
हिंशा	-12.8263
नित्‍तीके	-12.8264
▁क्‍यद	-12.8264
▁सुद	-12.8271
क्‍गा	-12.8273
ेंसीशा	-12.8274
▁गिद	-12.8279
ुइक्‍ताक्‍म	-12.828
िम्‍तेक्‍म	-12.828
नेंता	-12.8283
मग्‍याइक्‍ती	-12.8291
▁क्रो	-12.8291
तेल्‍लेम	-12.8295
चढ़ेशो	-12.8297
छिङछिङ	-12.8299
▁मतांइसी	-12.8302
पेन्	-12.8312
भेडा	-12.8315
खाल्‍पा	-12.8316
▁क्‍योरती	-12.8316
बारनाबास	-12.8318
ब्रोंइतीक	-12.8318
▁मलेत	-12.8319
चोव़खेसी	-12.8323
मानेचा	-12.8323
वोइक्‍पाइक्‍	-12.8323
फिलीप	-12.8328
▁ताइन	-12.8329
होव़प	-12.833
ओंथ	-12.8331
इजीप्‍त	-12.8332
▁टीमे	-12.8339
शांबु	-12.8346
मोपा	-12.8348
ग्रुम	-12.8353
पढे	-12.8366
मासीडोनीया	-12.8372
एन्‍टीओक	-12.8376
▁नेंनीन	-12.8378
▁जपाइक्‍	-12.8378
श्‍ये	-12.8379
मिक्‍चीम	-12.8381
ग्रुम्‍चा	-12.8382
बेक्‍शा	-12.8386
▁जन्‍तुपुकी	-12.8386
सोइश्‍शोपुकी	-12.8387
▁मब्राइ	-12.8388
कोक्‍के	-12.8388
सिजरिया	-12.8392
ंइसीनीनी	-12.8395
ीत	-12.8395
▁थैल	-12.8396
जकरिया	-12.8398
▁मबिस्‍सा	-12.8399
ब्‍वा	-12.8402
जन्‍ती	-12.8402
सिलास	-12.8404
कछडी	-12.8407
सहरम	-12.8407
ओव़	-12.8409
फेक्‍तीक	-12.8409
▁लिसीय	-12.8412
युस्‍तस	-12.8415
▁तिक्‍	-12.8416
सोइक्‍नुङ	-12.8419
कोरनेलीयस	-12.8421
▁लुक्‍ता	-12.8422
हनानीया	-12.8423
अग	-12.8423
लुम्‍सेक्‍ल	-12.8424
केफास	-12.8425
ेरग	-12.8426
अग्रीप्‍पा	-12.8426
ख्रीस्‍तम	-12.8426
क्‍तानु	-12.8426
▁प्रेक्‍स	-12.8426
थिस्‍सलोन	-12.8426
ोल	-12.8427
बुंबु	-12.8428
ग्‍येरसीने	-12.843
चढ़ेतीक	-12.843
ाप्‍नीमी	-12.8431
फिलेमोन	-12.8431
मेल्‍कीसेदेक	-12.8432
कुचुम	-12.8432
फोनीसीया	-12.8432
किप्‍शुर	-12.8434
दाक्‍मुने	-12.8436
▁पाइक्	-12.8436
इस्राएलीपुकी	-12.8437
▁मसुंइ‍स	-12.8438
मिलेटस	-12.8438
तबीता	-12.8439
तेम	-12.8439
क्रेट	-12.8439
हाबील	-12.844
बोक्‍को	-12.844
▁गेपुक	-12.844
मतांइसीब	-12.8441
फौज	-12.8441
▁मख्रो	-12.8443
पात्‍के	-12.8446
योक्‍गा	-12.8446
मतुइक्‍ब	-12.8447
बोक्‍कीन	-12.8449
▁ग्रुम्‍पाइक्‍न	-12.845
सापतीन	-12.8453
हिंचा	-12.8455
ग्रीस	-12.8457
▁ब्रेम्‍मु	-12.8458
▁मचब	-12.8464
सदुकी	-12.8466
होस	-12.847
आलपुकी	-12.847
चाक्‍दीत्‍	-12.847
▁साम्‍स	-12.8474
म्‍ताक्‍म	-12.8474
▁अन्	-12.8475
ब्रेत्‍तीमी	-12.8477
टिन	-12.8477
▁जाक्‍दीश	-12.8479
▁लतीके	-12.848
महिनीन	-12.8481
दाक्‍मुय	-12.8482
▁जाक्‍दीस्‍स	-12.8485
मदेंनुङ	-12.8486
ताप्‍तीक	-12.8488
▁मदेंनी	-12.8494
सिल	-12.8496
▁लाक्‍बाक्‍मा	-12.8498
▁मचाप्‍बाक्‍मा	-12.8498
▁ताइक्‍ता	-12.8504
प्‍नीकी	-12.8506
▁होम्‍श	-12.8509
हुल	-12.851
ओशोमी	-12.8512
नित्‍थ	-12.8518
▁चढ़ेतीकेम	-12.852
▁लाक्‍नी	-12.8521
फाइक्‍ब	-12.8521
शाक्‍श	-12.8522
‍नय	-12.8524
रुम्‍नी	-12.8527
▁थोक्‍ता	-12.8527
▁शेंताक्‍ङ	-12.853
ङाक्‍कीन	-12.8533
दुम्‍यल	-12.8533
खप	-12.8536
सुइय्‍य	-12.8538
▁सेल्‍पांइस	-12.8538
रोक्‍स	-12.8539
▁मोइक्‍	-12.8541
बेक्‍त	-12.8543
कोर्राम	-12.8543
वोतीने	-12.8548
तांइसेक्‍ल	-12.8548
▁दाक्‍मुतीक	-12.8549
▁गारनीस	-12.8553
श्‍शोपुकी	-12.8555
▁कपट	-12.8557
▁केन्	-12.8565
▁मपुं	-12.8567
इस्राएली	-12.8569
पुंइसाक्‍यी	-12.857
जय	-12.857
शेंताक्‍व	-12.8572
नेन्‍मे	-12.8581
शेंनुङमी	-12.8581
बोरपाइक्‍नुङ	-12.8584
▁तुइक्‍नीक	-12.8586
ुन्‍द	-12.8591
वोलम	-12.8594
हिउंदम	-12.8594
जेठाम	-12.8595
वोतो	-12.8595
ित्‍थु	-12.8595
त्‍के	-12.8597
▁वोइश्‍	-12.8597
▁गाइक्‍च	-12.8598
▁पेरतीक	-12.8598
▁सुइश्‍	-12.8602
▁हुइश्‍	-12.8605
मारथा	-12.8605
रसीस	-12.8608
▁किम्‍स	-12.8612
चिक्‍ताक्‍न	-12.8614
योक्‍शा	-12.8618
कोंइनीकी	-12.862
▁साइश्‍	-12.862
जरमेसाक्‍व	-12.8624
▁फोनीक	-12.8624
▁मपाइश्‍	-12.8625
ङीने	-12.8628
‍याम्‍से	-12.863
▁मदेंनीम	-12.8635
▁एफिस	-12.8636
‍श	-12.8638
शारा	-12.8639
▁मबिग्रे	-12.864
‍‍नी	-12.864
▁सोइक्‍ताक्	-12.8642
द्रीया	-12.8643
▁ग्रोइश्‍	-12.8643
ाइक्‍मुशो	-12.8644
▁गाइक्‍ताक्‍	-12.8644
हिनी	-12.8644
▁हिक्‍ती	-12.8644
खोइक्‍नीकी	-12.8648
▁गलाती	-12.8648
दाक्‍मुइनीम	-12.8649
▁बाक्‍कीस	-12.8649
▁मनेंनी	-12.865
▁कोव़नीन	-12.865
ोइक्‍पा	-12.865
न्‍द्रीयास	-12.8651
▁अबीया	-12.8651
ल्‍खानम	-12.8651
च्‍छ	-12.8651
▁अरीस्‍त	-12.8651
▁स्‍तीफ	-12.8651
▁परमप्र	-12.8651
ित्‍नीनी	-12.8651
▁मतव	-12.8652
▁मकाप्‍	-12.8652
पोव़	-12.8653
ताक्‍शा	-12.8653
▁परमप	-12.8654
इसीबा	-12.8654
भु	-12.8654
्रेक्‍नुङ	-12.8655
हत्‍त	-12.8655
▁कोंइताक्‍य	-12.8658
▁अस्‍	-12.8658
ोअन	-12.8659
▁चाम्‍स	-12.866
▁पूर्	-12.866
ाइक्‍पाइक्‍ब	-12.8662
▁ताक्‍की	-12.8663
‍मोन	-12.8663
ग्‍ग	-12.8663
ौरा	-12.8664
बलस	-12.8664
▁गाक्‍पा	-12.8666
▁नेंबाक्‍ते	-12.8667
▁राम्‍स	-12.8667
द्रीयास	-12.8668
प्‍थु	-12.8668
खे	-12.8668
म्‍मुशा	-12.8669
ेत्‍नीम	-12.8672
▁मबाक्‍ङ	-12.8672
‍वी	-12.8672
रेम्‍म	-12.8672
ग्	-12.8673
▁मदेंबा	-12.8674
‍बपुकी	-12.8674
▁खेरबाक्‍मा	-12.8677
‍फा	-12.8677
िम्‍दा	-12.8679
‍न्‍नी	-12.868
कोव़ङीने	-12.8682
‍मेक्‍ल	-12.8683
▁हिंत	-12.8686
▁मक्‍याम्‍सी	-12.8687
‍गी	-12.8687
‍मुने	-12.8689
ाह	-12.8689
‍मीन	-12.8694
चाड	-12.8695
▁तेक्‍ती	-12.8697
म्‍तीके	-12.8699
▁अक्	-12.8699
▁पात्‍	-12.8703
वीला	-12.8708
सीथु	-12.871
▁ग्रुंइदीन	-12.8711
योल्‍द	-12.8715
▁माइक्‍नुङ	-12.8721
▁सेत्‍त	-12.8722
हिरदीन	-12.8724
ब्रेप्‍ब	-12.8724
▁मतुइक्‍तमे	-12.8731
‍मे	-12.8732
राक	-12.8733
यरूसलेमम	-12.8733
डोन	-12.8735
िवार	-12.8737
▁गेम्‍से	-12.8743
‍मल	-12.8743
▁हात	-12.8744
‍के	-12.8745
▁मुम्‍मु	-12.8748
ांइसीने	-12.8748
यहूदामी	-12.8749
म्‍फा	-12.8751
▁मटीम	-12.8755
बीत	-12.8755
▁थां	-12.8757
ाइय्‍यी	-12.8758
▁गारीन	-12.8762
मसाइक्‍चा	-12.8762
रोड	-12.8766
ुक्‍गमे	-12.8768
इट	-12.8771
स्‍वर्गम	-12.8774
्‍कु	-12.8776
▁एकोपुकीम	-12.8781
▁पमुइ	-12.8783
म्‍तीक	-12.8784
शेंनीमी	-12.8785
एर	-12.8785
रसाक्‍यी	-12.8785
▁मक्‍याम्‍द	-12.8789
▁देंमाक्‍	-12.8792
ंइसीथ	-12.8795
तोक्‍नी	-12.8804
▁मयाक्‍	-12.8808
दाक्‍ताक्‍ङ	-12.8809
ोनीकस	-12.882
दोद	-12.8821
यीब	-12.8823
▁ब्रङ	-12.8829
ुम्‍का	-12.8831
ापोलीस	-12.8831
▁साल्‍	-12.8833
▁मबाक्‍तीक	-12.8834
िम्‍ताक्‍नी	-12.8835
▁शाक्‍	-12.8836
ीयाह	-12.8837
▁ममिम्‍ता	-12.8839
▁तुइक्‍पाइक्‍ते	-12.8841
गु	-12.8845
ेरसीस	-12.8846
▁पाइनन	-12.8852
ुक्‍स	-12.8864
‍मानु	-12.8871
▁मिम्‍तीकेम	-12.8872
ब्रोंइनय	-12.8872
साशा	-12.8874
▁लाम्‍	-12.8884
सन्‍ना	-12.8885
▁योव़ते	-12.8888
रोद	-12.8896
▁चाप्‍मे	-12.8902
▁युलीय	-12.891
‍पाइक्‍मी	-12.8921
म्‍बुम	-12.8923
▁बारत	-12.8926
▁मशेंदी	-12.8927
▁मदेंब	-12.8929
लु	-12.8938
▁ब्रात	-12.894
▁खेरब	-12.8942
ाइक्‍नीकी	-12.8943
▁माल्‍द	-12.8944
पमुय	-12.895
▁मचाप्‍तीक	-12.8955
द्रामी	-12.8968
ोइक्‍तीन	-12.8972
लाक्‍गा	-12.8976
देंमाक्‍त	-12.8977
▁सोइक्‍न	-12.8979
▁मदुक्‍	-12.8985
सेंसीशो	-12.8987
इक्‍ताक्‍ङ	-12.8999
आह	-12.9
▁सदु	-12.9001
‍क	-12.9004
▁पाइबाक्‍ते	-12.9005
म्‍नीनी	-12.9014
क्‍के	-12.9017
‍तेक्‍मे	-12.9031
▁हिस	-12.9034
▁मकु	-12.9045
▁दाक्‍नी	-12.9049
▁हांबुम	-12.905
▁सुइक्‍पा	-12.9062
ग्‍येरसीङ	-12.9066
ुइक्‍पाइक्‍मी	-12.9073
देंतीनी	-12.908
▁कोव़मु	-12.9085
सीनीकी	-12.9095
▁मदुम्‍ती	-12.9096
▁शार	-12.9098
लांमी	-12.9106
▁पाइती	-12.9135
लाइश्‍शो	-12.9137
▁कुम्‍	-12.9155
सेंसाक्‍व	-12.9159
▁लाइक्‍ती	-12.9162
ायो	-12.9183
बारब	-12.9188
▁फेक्‍ब	-12.9192
नाइक्‍चा	-12.9197
ेरती	-12.9227
‍न	-12.9228
प्र	-12.9232
▁जाक्‍ङ	-12.9253
्‍नीनी	-12.927
▁ब्‍वार	-12.9277
सामरी	-12.9277
▁हिरस	-12.9279
▁बुक	-12.928
▁बुं	-12.9288
ओव़दी	-12.9289
ेट	-12.9302
िउं	-12.931
ेशा	-12.9352
▁ग्‍याइक्‍ता	-12.9357
▁मते	-12.9357
ग्रूङ	-12.9359
▁तपांइस	-12.9361
▁मासीडोनीयाम	-12.9367
▁जाक्‍दीम्‍मे	-12.9368
▁ख्रुइश्‍शोम	-12.9368
▁योक्	-12.9371
ाइब	-12.9379
पीन	-12.9379
याह	-12.9382
▁गाक्‍ङ	-12.9386
िम्‍नीम	-12.9399
मोदें	-12.9409
्‍ना	-12.9419
दोशो	-12.9432
ब्रोंइनुङ	-12.9456
प्रोक्‍	-12.9473
▁फिले	-12.9488
टस	-12.9506
▁क्	-12.9508
जो	-12.951
▁कोव़मुम	-12.9514
मिम्‍तमेक्‍ल	-12.9516
▁अप	-12.9524
िक्‍तीन	-12.9529
▁सुप्‍	-12.9542
आंमा	-12.9544
वाक्‍ब	-12.9545
्‍मेक्‍ल	-12.9549
▁नेंबाक्‍मा	-12.9567
▁अब	-12.9569
एथ	-12.9573
ंइसीशा	-12.9574
ूशो	-12.9589
▁दाक्‍ने	-12.9633
▁जङ	-12.9645
▁मचाप्‍बाक्‍त	-12.9649
ीयम	-12.9654
थिप्‍ब	-12.9655
साइक्‍थ	-12.9672
▁मपन	-12.9689
नीन	-12.969
उद	-12.9697
लेश्‍शो	-12.9711
प्‍	-12.9713
ोइक	-12.9762
लेयसी	-12.9764
प्‍मे	-12.9777
ेंताक्‍म	-12.9791
▁लेत्‍च	-12.9792
ंइसमल	-12.9792
जरमेशो	-12.9792
‍ती	-12.9821
▁मलम	-12.9834
ीपुकीम	-12.9839
▁आप्	-12.9842
▁पुंइसीने	-12.9846
▁चोक्‍त	-12.9851
स्‍ता	-12.9874
यरूसलेममी	-12.9877
ोरस	-12.9881
इमी	-12.9889
▁थीत	-12.9907
ाइनीनी	-12.9907
▁मप्रोंइबा	-12.9925
▁निको	-12.9931
टीतीनी	-12.9938
▁चाक्‍ग्‍	-12.9942
ओव़नुङ	-12.9943
▁नेंपाइक्‍त	-12.9954
ांइ‍सीबा	-12.9959
ताक्‍क	-12.9959
▁डे	-12.9961
▁कुम्‍सोम	-12.9963
ुम्‍सीशो	-12.9987
▁ग्‍येरसीनी	-12.9989
टीबपुकीम	-13.0063
ोशा	-13.0085
क्‍नय	-13.0085
▁तुइक्‍बपुकी	-13.01
▁कबलम	-13.0106
▁हिंबा	-13.0124
▁दुम्‍तीकेम	-13.0142
फीर	-13.0159
ीयोप	-13.0163
क्‍बाक्‍माक्‍त	-13.0172
ल्‍मानु	-13.0181
ंखा	-13.0182
▁मरुब	-13.0183
▁मलेम्‍म	-13.0194
सेल्‍नीनी	-13.0204
▁ब्रोंइबा	-13.0216
महिक्‍	-13.0226
माइस	-13.0228
सुइक्‍तीनी	-13.0232
सुइक्‍नेवे	-13.0234
▁दारपाइ	-13.0238
▁खपी	-13.0239
बाक्‍ङा	-13.0251
▁पाम्‍त	-13.0261
ोसा	-13.0274
▁चिप्‍	-13.0276
▁मसुत	-13.0282
▁पक	-13.0326
बारपाइक्‍ब	-13.0347
ग्राम	-13.0354
प्रभुम	-13.0391
▁पांइ	-13.0401
जाक्‍दीत्‍चा	-13.0401
▁क्‍योरच	-13.0405
लाइनीकी	-13.0406
▁कुं	-13.0437
लुस	-13.0445
ाम्‍माक्‍त	-13.0474
थार	-13.0487
िम्‍नुङ	-13.0497
ततीकेमी	-13.0498
म्‍मी	-13.0509
ाइक्‍नन्‍नी	-13.0518
वोइक्‍तु	-13.0526
पामेक्‍ल	-13.0534
▁मग्‍येरन	-13.0563
▁मरि	-13.0573
ंइदमे	-13.06
नेनी	-13.0605
बेम	-13.0626
शेंशो	-13.0634
ग्‍येरसीब	-13.0641
ीसी	-13.0654
▁ग्‍याइश्‍श	-13.0662
पापी	-13.0671
िया	-13.0682
▁मग्‍या	-13.0703
इक्‍पदमे	-13.071
▁ङाक्‍मा	-13.0717
‍नीमी	-13.073
▁गाप्‍श	-13.0738
योव़शो	-13.0783
दिशो	-13.0791
सल	-13.0795
ुप्‍पाइश्‍शा	-13.0797
‍तो	-13.0804
▁देंबम	-13.0808
मिम्‍ताक्‍य	-13.081
▁इस्‍क	-13.0815
िसीम	-13.0818
‍च	-13.0822
गाक्‍ङ	-13.0829
▁इस्राएलम	-13.0835
ोक्‍गा	-13.094
▁गिल्‍स	-13.0958
▁जिन	-13.0963
पपदल	-13.0998
प्‍पदा	-13.1015
पास	-13.1027
म्‍पा	-13.1036
्रुस	-13.1037
सिपाहीपुकी	-13.1038
कोंइदीने	-13.1047
▁लीम	-13.1066
्‍ता	-13.1074
ग्‍येरसीन	-13.1095
यप	-13.1098
▁पिव	-13.1101
पत	-13.1103
▁जत	-13.112
क्‍ताक्‍स	-13.1145
चाप्‍नीसी	-13.1149
्‍यु	-13.1157
स्	-13.1181
ताइतीनी	-13.1182
ग्‍याइक्‍	-13.121
गम	-13.1212
दाक्‍ताक्‍य	-13.1231
▁रुप्‍‍च	-13.1234
ेंसीन	-13.1266
ेङ	-13.1279
ंचा	-13.1298
ुरपाइश्‍शा	-13.1349
▁मरा	-13.1384
डांडा	-13.1415
ाइक्‍ताक्‍व	-13.1424
मबा	-13.1431
▁क्‍याम्‍ताक्‍	-13.1444
क्‍बा	-13.1445
क्‍याल्‍ब	-13.1447
▁मतुइक्‍न	-13.1504
▁मखोइक्‍	-13.1512
▁मग्‍यो	-13.1539
▁लङ	-13.1541
ाइक्‍थु	-13.1574
रुप्‍मेक्‍ल	-13.1585
ग्‍येरसीशो	-13.1601
म्‍नी	-13.1622
ुप्‍ताक्‍म	-13.1623
हेल	-13.1664
▁अरुम	-13.1684
प्रोन्‍मे	-13.1689
▁क्‍योरपाइक्‍	-13.1693
सीबाक्‍त	-13.1718
▁शिर	-13.172
▁पुंइपद	-13.1756
▁जारद	-13.1769
ील	-13.1788
▁पुंइसीनीन	-13.1792
▁सोव़श	-13.1797
▁ख्राइक्‍प	-13.1811
▁उ	-13.1839
▁सिश्‍श	-13.1839
▁ब्रु	-13.1858
▁दारपाइश्‍श	-13.186
खेरचा	-13.19
खोइक्‍बपुकी	-13.1938
दुम्‍तीनी	-13.1947
ोक्‍थु	-13.1964
पुंइसीनुङ	-13.2026
क्‍तमे	-13.2029
ोक्‍सीब	-13.2046
जाक्‍मेनु	-13.2052
दुम्‍नीनी	-13.2105
▁ओन	-13.2106
▁रुप्‍पाइ	-13.2111
नो	-13.2111
रामी	-13.2129
▁मगाक्‍म	-13.2161
ाब	-13.2173
▁प्रोव़श	-13.2188
मह	-13.2192
▁एफ	-13.2255
इक्‍पाइक्‍तन्‍नी	-13.2263
▁रेन्‍न	-13.2265
▁सोइक्‍च	-13.2309
▁चोक्‍च	-13.2313
लाइक्‍नीम	-13.2315
सेली	-13.233
मास	-13.2339
्रोन	-13.2348
कील	-13.2366
ातीया	-13.2407
म्‍नय	-13.2409
▁शेप्‍	-13.2424
तुइक्‍ताक्‍क	-13.2448
▁टीन	-13.2473
वल	-13.2496
पोक्‍ब	-13.2503
▁मदाक्‍ताक्‍	-13.2559
ये	-13.2585
कुर	-13.2589
बुल	-13.2602
▁चिक्‍ताक्‍	-13.2644
तुइक्‍नय	-13.2669
‍ता	-13.2719
चे	-13.272
तोक्‍चा	-13.2739
▁मक्‍याम	-13.2746
▁स्‍त	-13.2759
गाक्‍नीम	-13.2782
ुइक्‍ब	-13.2798
ुइक्‍पाइश्‍शा	-13.2803
ग्‍मे	-13.2819
ुंइसाक्‍व	-13.2822
▁ग्रीच	-13.2836
▁बेक्‍ती	-13.2868
टाल	-13.2869
▁दाक्‍मुइन	-13.2889
रथु	-13.2915
ाप्‍तीके	-13.2934
ताक्‍यीनी	-13.2954
ांइसीब	-13.3042
▁मखो	-13.3046
पुंइसीनीनी	-13.3071
योना	-13.3089
सेल्‍शो	-13.3118
▁ब्रेक्‍त	-13.3119
ब्रोव़	-13.3128
ीनेवे	-13.3189
▁मगा	-13.3208
▁मपा	-13.3224
▁पोक्‍प	-13.3249
▁मब्रेक्‍त	-13.3252
ुइक्‍ता	-13.329
▁नेक्‍थाम	-13.3316
ेक्‍सीब	-13.3319
▁माग	-13.3353
शेंदुमी	-13.3386
▁क्‍युप्‍	-13.3408
▁नेंसी	-13.3411
गेन	-13.3412
ंथ	-13.3465
नक	-13.3471
▁फेत्‍	-13.3512
ेंसी	-13.3563
▁मक्‍याम्‍	-13.3603
कस	-13.3614
दीने	-13.3623
डो	-13.3651
ग्‍येरप	-13.3665
▁रुप	-13.3681
नान	-13.3681
▁गेबाक्‍मा	-13.371
ोम	-13.3726
▁मव	-13.3753
▁ख्रोइ	-13.3773
▁रोक्‍सीश	-13.3788
म्‍पाइक्‍तु	-13.3808
▁ग्‍याइक्‍च	-13.3811
्‍माक्‍त	-13.3933
इक्‍तीम्‍सी	-13.3953
ित्‍चा	-13.397
▁थोव़कम	-13.398
ल्‍तीक	-13.3988
ाप्‍तु	-13.4033
ुंइसीशो	-13.4038
▁साद	-13.408
म्‍नुङ	-13.411
इबाक्‍माक्‍त	-13.4135
▁गाक्‍नी	-13.4198
िश्‍शा	-13.42
वाइली	-13.4208
▁हुइक्‍त	-13.4217
▁प्रोंइपाइक्‍नी	-13.4219
▁गेतीक	-13.4219
▁तूच	-13.4228
ांइसीशा	-13.4234
▁गाक्‍बा	-13.4242
ेंसीब	-13.4264
नीने	-13.4288
▁सुम्‍स	-13.4297
ाइक्‍नुङ	-13.4332
▁अक	-13.4341
ुम्‍ने	-13.4353
ुप्‍	-13.4355
▁मिम्‍पाइश्‍श	-13.4376
▁सुइक्‍च	-13.4388
ाक्‍नीनी	-13.4424
▁हिरद	-13.4557
ाक्‍को	-13.4593
▁लोक्‍बपुकीम	-13.4615
▁मपु	-13.4628
▁पोक्‍ग	-13.463
▁गेमुश	-13.4655
एन	-13.466
▁चुइश्‍श	-13.4692
्रेंदीन	-13.4694
तूनीकी	-13.4704
ुम्‍नीम	-13.4733
▁मब्रेत्‍	-13.4783
▁राप्‍पाइक्‍त	-13.4869
▁ब्‍वांइ‍सीश	-13.4922
▁थिश	-13.4933
हुम	-13.4947
▁लाइक्‍न	-13.495
▁मजाक्‍	-13.4978
ाइक	-13.5027
▁जार	-13.5038
▁मबि	-13.5068
तूबा	-13.5081
क्‍सीब	-13.5139
▁रुप्‍न	-13.5149
▁परमप्रभुम	-13.5157
दमस्‍कस	-13.5188
जिक्‍ब	-13.5204
ाइक्‍नीनी	-13.5205
प्‍ती	-13.5208
ंड	-13.525
ों	-13.5343
म्‍नीम	-13.5402
▁चोव़दीम	-13.5439
ाक्‍नीकी	-13.5451
▁सेर	-13.5463
ुइक्‍नीम	-13.5484
▁मपुंइसीन	-13.56
▁पाइन	-13.5608
इय्‍यीनी	-13.5609
क्‍सा	-13.5628
▁कोंइनी	-13.5656
ंसीब	-13.5678
तीम्‍सी	-13.5688
▁ग्‍याप्‍ती	-13.569
▁योव़ङ	-13.5699
ेंब	-13.5704
▁ख्री	-13.5794
▁पशोपुकी	-13.5851
सेला	-13.5864
ेंथ	-13.5915
मोसाम	-13.5962
▁फांइ	-13.5979
क्‍य	-13.5994
ुइश्‍शोमी	-13.5997
▁गोन	-13.6
ाएल	-13.6077
ोले	-13.611
▁निप्‍पाइक्‍	-13.6132
जाक्‍ङा	-13.6181
चाप्‍नुङा	-13.6193
ोइक्‍तीक	-13.62
ेंपाइक्‍ब	-13.6278
दुम्‍माक्‍त	-13.63
ारपाइक्‍चा	-13.6315
ेल्‍ले	-13.6321
▁गेव	-13.6366
▁मलाइन	-13.6532
बल	-13.654
▁तुम्‍मुम	-13.6575
▁कोंइबा	-13.6632
ग्रुंइदुमी	-13.6707
‍तीन	-13.6735
रुप्‍‍नीम	-13.6779
▁ताइक्‍ताक्‍	-13.6779
ाप्‍ती	-13.6784
जरमेसे	-13.6792
लाम	-13.6817
▁चढ़ेच	-13.6836
मीना	-13.6856
लीथ	-13.6984
▁बाक्‍ङ	-13.702
▁मिक	-13.703
क्‍नन्‍नी	-13.7035
▁उप्‍न	-13.7039
बाक्‍चा	-13.7044
ाक्‍ग्‍मे	-13.7062
▁मलाक्‍	-13.7063
▁प्रोंइसीश	-13.7074
▁ओंइद	-13.7079
डीस	-13.7082
▁मताक्‍	-13.709
▁खोइक्‍पाइक्‍	-13.7144
बाक्‍ब	-13.7146
शेंदमे	-13.7207
जेल्‍खानम	-13.7221
‍प	-13.724
▁ग्‍याप	-13.726
गोम	-13.73
नें	-13.7304
ोइक्‍तीमी	-13.7352
नाइ	-13.748
ुम्‍सी	-13.7545
ांइसाक्‍व	-13.7558
▁ब्रश	-13.7737
▁लेप्‍प	-13.7757
▁ब्रेम्‍	-13.7784
ुइक्‍	-13.7827
ीङ	-13.7834
▁ङोइश्‍श	-13.7838
▁ग्‍येरनी	-13.7849
क्‍बमी	-13.7904
मुया	-13.7932
▁नेंत	-13.8019
▁ब्रेक्‍सी	-13.8034
ंम	-13.806
▁ग्‍याइक्‍प	-13.8098
▁मपाइन	-13.8114
क्‍पाइक्‍तु	-13.8237
सीयस	-13.8336
बाक्‍को	-13.8391
साइक्‍ब	-13.8409
ल्‍	-13.8477
्‍ती	-13.8516
राम	-13.8531
▁ग्‍येरपाइ	-13.8558
ख्रोइक्‍ब	-13.8588
▁महिंन	-13.8614
▁मपाइ	-13.8642
▁दोक्‍म	-13.8665
ाक्‍बाक्‍मा	-13.8718
जीब	-13.8723
▁गुप्‍त	-13.8741
▁कोंइश	-13.8751
सीनीम	-13.8761
जोक्‍नीम	-13.8813
ंग	-13.8884
ाइक्‍तीके	-13.8886
रेक्‍	-13.8913
▁लाक्‍त	-13.8965
▁शुक्‍श	-13.8968
▁दाक्‍ताक्‍	-13.9046
ुंइनन्‍नी	-13.9061
ोव़की	-13.9173
इक्‍तन्‍नी	-13.9184
▁चाक्‍श	-13.9239
मिम्‍सीब	-13.9275
▁नाक्‍तीन	-13.9278
नमी	-13.932
ोथी	-13.9354
रुप्‍तीक	-13.9373
्‍ट	-13.9374
ुइक्‍तीमी	-13.9374
ीतीनी	-13.9434
▁ब्रोंइपाइक्‍	-13.9495
ाप्‍शा	-13.9506
▁थिम्‍श	-13.9577
ब्र	-13.9832
पुंइशो	-13.9843
▁तुप्‍पाइक्‍त	-14.0071
बाक्‍ती	-14.0123
कु	-14.0166
ल्‍नीनी	-14.0197
ीपाइश्‍शा	-14.0221
ब्रेक्‍चा	-14.0259
▁तुइ	-14.0277
▁मटिपाइक्‍	-14.0288
छि	-14.0321
सीने	-14.0508
ारपाइक्‍तीक	-14.0599
▁ख्रेक्‍त	-14.0677
▁योव़त	-14.0754
▁जिम	-14.0908
▁गेत	-14.0985
▁मखा	-14.1027
▁वोइक्‍त	-14.1032
▁ठे	-14.1075
इनस्‍कु	-14.11
▁एन्‍	-14.1233
▁महे	-14.1314
इनी	-14.1318
▁मबारपाइक्‍	-14.1326
िप्‍शा	-14.1381
▁मिम्‍च	-14.1421
वार	-14.1452
प्रोंइतीनी	-14.1474
▁मपपद	-14.1552
्‍याइक्‍चा	-14.157
यावे	-14.1636
बाक्‍सा	-14.1655
▁ग्रुंइप	-14.1658
चाप्‍बपुकी	-14.1675
बाक्‍मे	-14.1772
ेरशा	-14.1856
ंङ	-14.1879
▁ममिम्‍नी	-14.1982
ओव़ब	-14.2064
ावल	-14.2085
गाक्‍शो	-14.2214
▁किप्‍श	-14.2232
हना	-14.2235
ब्रेक्‍तो	-14.224
रुप्‍नीनी	-14.2279
इक्‍पाइश्‍शा	-14.2358
‘	-14.2416
अ	-14.2417
“	-14.2418
भ	-14.2419
़	-14.242
ाइतस्‍कु	-14.242
